#ifndef NETWORK_MODEL_H
#define NETWORK_MODEL_H

const unsigned int network_model_dim1 = 9768;

const unsigned char network_model[9768] = {
    0x20, 0x00, 0x00, 0x00, 0x54, 0x46, 0x4c, 0x33, 0x00, 0x00, 0x00, 0x00, 
    0x14, 0x00, 0x20, 0x00, 0x1c, 0x00, 0x18, 0x00, 0x14, 0x00, 0x10, 0x00, 
    0x0c, 0x00, 0x00, 0x00, 0x08, 0x00, 0x04, 0x00, 0x14, 0x00, 0x00, 0x00, 
    0x1c, 0x00, 0x00, 0x00, 0x90, 0x00, 0x00, 0x00, 0xe8, 0x00, 0x00, 0x00, 
    0xf0, 0x1d, 0x00, 0x00, 0x00, 0x1e, 0x00, 0x00, 0xb0, 0x25, 0x00, 0x00, 
    0x03, 0x00, 0x00, 0x00, 0x01, 0x00, 0x00, 0x00, 0x10, 0x00, 0x00, 0x00, 
    0x00, 0x00, 0x0a, 0x00, 0x10, 0x00, 0x0c, 0x00, 0x08, 0x00, 0x04, 0x00, 
    0x0a, 0x00, 0x00, 0x00, 0x0c, 0x00, 0x00, 0x00, 0x1c, 0x00, 0x00, 0x00, 
    0x38, 0x00, 0x00, 0x00, 0x0f, 0x00, 0x00, 0x00, 0x73, 0x65, 0x72, 0x76, 
    0x69, 0x6e, 0x67, 0x5f, 0x64, 0x65, 0x66, 0x61, 0x75, 0x6c, 0x74, 0x00, 
    0x01, 0x00, 0x00, 0x00, 0x04, 0x00, 0x00, 0x00, 0x98, 0xff, 0xff, 0xff, 
    0x0d, 0x00, 0x00, 0x00, 0x04, 0x00, 0x00, 0x00, 0x07, 0x00, 0x00, 0x00, 
    0x64, 0x65, 0x6e, 0x73, 0x65, 0x5f, 0x33, 0x00, 0x01, 0x00, 0x00, 0x00, 
    0x04, 0x00, 0x00, 0x00, 0xee, 0xe1, 0xff, 0xff, 0x04, 0x00, 0x00, 0x00, 
    0x0b, 0x00, 0x00, 0x00, 0x64, 0x65, 0x6e, 0x73, 0x65, 0x5f, 0x69, 0x6e, 
    0x70, 0x75, 0x74, 0x00, 0x02, 0x00, 0x00, 0x00, 0x34, 0x00, 0x00, 0x00, 
    0x04, 0x00, 0x00, 0x00, 0xdc, 0xff, 0xff, 0xff, 0x10, 0x00, 0x00, 0x00, 
    0x04, 0x00, 0x00, 0x00, 0x13, 0x00, 0x00, 0x00, 0x43, 0x4f, 0x4e, 0x56, 
    0x45, 0x52, 0x53, 0x49, 0x4f, 0x4e, 0x5f, 0x4d, 0x45, 0x54, 0x41, 0x44, 
    0x41, 0x54, 0x41, 0x00, 0x08, 0x00, 0x0c, 0x00, 0x08, 0x00, 0x04, 0x00, 
    0x08, 0x00, 0x00, 0x00, 0x0f, 0x00, 0x00, 0x00, 0x04, 0x00, 0x00, 0x00, 
    0x13, 0x00, 0x00, 0x00, 0x6d, 0x69, 0x6e, 0x5f, 0x72, 0x75, 0x6e, 0x74, 
    0x69, 0x6d, 0x65, 0x5f, 0x76, 0x65, 0x72, 0x73, 0x69, 0x6f, 0x6e, 0x00, 
    0x11, 0x00, 0x00, 0x00, 0x04, 0x1d, 0x00, 0x00, 0xfc, 0x1c, 0x00, 0x00, 
    0x6c, 0x1c, 0x00, 0x00, 0x5c, 0x14, 0x00, 0x00, 0xcc, 0x13, 0x00, 0x00, 
    0x7c, 0x13, 0x00, 0x00, 0x64, 0x13, 0x00, 0x00, 0x54, 0x12, 0x00, 0x00, 
    0xc4, 0x08, 0x00, 0x00, 0xb4, 0x00, 0x00, 0x00, 0xac, 0x00, 0x00, 0x00, 
    0xa4, 0x00, 0x00, 0x00, 0x9c, 0x00, 0x00, 0x00, 0x94, 0x00, 0x00, 0x00, 
    0x8c, 0x00, 0x00, 0x00, 0x6c, 0x00, 0x00, 0x00, 0x04, 0x00, 0x00, 0x00, 
    0xaa, 0xe2, 0xff, 0xff, 0x04, 0x00, 0x00, 0x00, 0x58, 0x00, 0x00, 0x00, 
    0x0c, 0x00, 0x00, 0x00, 0x08, 0x00, 0x0e, 0x00, 0x08, 0x00, 0x04, 0x00, 
    0x08, 0x00, 0x00, 0x00, 0x10, 0x00, 0x00, 0x00, 0x28, 0x00, 0x00, 0x00, 
    0x00, 0x00, 0x06, 0x00, 0x08, 0x00, 0x04, 0x00, 0x06, 0x00, 0x00, 0x00, 
    0x04, 0x00, 0x00, 0x00, 0x01, 0x00, 0x00, 0x00, 0xea, 0x03, 0x00, 0x00, 
    0x00, 0x00, 0x0a, 0x00, 0x10, 0x00, 0x0c, 0x00, 0x08, 0x00, 0x04, 0x00, 
    0x0a, 0x00, 0x00, 0x00, 0x02, 0x00, 0x00, 0x00, 0x02, 0x00, 0x00, 0x00, 
    0x04, 0x00, 0x00, 0x00, 0x06, 0x00, 0x00, 0x00, 0x32, 0x2e, 0x31, 0x34, 
    0x2e, 0x31, 0x00, 0x00, 0x0e, 0xe3, 0xff, 0xff, 0x04, 0x00, 0x00, 0x00, 
    0x10, 0x00, 0x00, 0x00, 0x32, 0x2e, 0x33, 0x2e, 0x30, 0x00, 0x00, 0x00, 
    0x00, 0x00, 0x00, 0x00, 0x00, 0x00, 0x00, 0x00, 0x2c, 0xdc, 0xff, 0xff, 
    0x30, 0xdc, 0xff, 0xff, 0x34, 0xdc, 0xff, 0xff, 0x38, 0xdc, 0xff, 0xff, 
    0x3c, 0xdc, 0xff, 0xff, 0x3e, 0xe3, 0xff, 0xff, 0x04, 0x00, 0x00, 0x00, 
    0x00, 0x08, 0x00, 0x00, 0x05, 0xd2, 0x22, 0x39, 0xe3, 0xd4, 0x0d, 0xd7, 
    0x11, 0xdf, 0xda, 0xe1, 0xf6, 0x49, 0xb4, 0x13, 0xe8, 0x02, 0x25, 0x18, 
    0x07, 0x01, 0x2b, 0xea, 0x07, 0xc2, 0xfb, 0xcd, 0xf6, 0x3a, 0xc7, 0xfe, 
    0x10, 0x41, 0xf6, 0x1e, 0xc7, 0x0f, 0xe7, 0xd6, 0x75, 0xf7, 0xfe, 0x24, 
    0xf7, 0x31, 0xe7, 0xdc, 0x21, 0xf0, 0x40, 0x0f, 0xd6, 0xd3, 0x16, 0xe1, 
    0x5e, 0xe2, 0x11, 0x26, 0x21, 0x00, 0xed, 0x02, 0xf0, 0x01, 0x28, 0xfa, 
    0xde, 0xf8, 0xd8, 0xfc, 0x21, 0x26, 0xe1, 0x0c, 0xe5, 0x0c, 0x3d, 0x1e, 
    0xf6, 0xe7, 0xe7, 0x26, 0xc8, 0x45, 0x25, 0xc4, 0xe8, 0x17, 0x29, 0x05, 
    0xf5, 0x07, 0x25, 0x18, 0x34, 0xce, 0x03, 0x38, 0xf5, 0x05, 0x0b, 0x20, 
    0x5e, 0xed, 0x28, 0x20, 0x03, 0x27, 0xc5, 0x2e, 0x2f, 0x07, 0x01, 0xc8, 
    0x02, 0x14, 0x11, 0x09, 0xa6, 0xec, 0xea, 0xfb, 0xdc, 0xdd, 0x0c, 0x03, 
    0xfc, 0x05, 0x03, 0xcd, 0x0b, 0x02, 0xe9, 0xeb, 0xbc, 0xe7, 0x2a, 0xf6, 
    0x0d, 0xe8, 0xb5, 0x05, 0x0b, 0x08, 0xf8, 0x1b, 0xfd, 0x0a, 0xc7, 0x3d, 
    0xe8, 0x05, 0x9e, 0xc9, 0x68, 0xc7, 0x26, 0xb9, 0x2b, 0x23, 0x09, 0xbb, 
    0xc8, 0xf4, 0xd5, 0x12, 0xb0, 0xca, 0x03, 0x1d, 0x28, 0xf5, 0xda, 0xe3, 
    0xdf, 0xf0, 0xfd, 0x0c, 0xb0, 0xce, 0xd7, 0x16, 0x58, 0xe5, 0x40, 0x2c, 
    0xeb, 0xfa, 0x1d, 0x01, 0x29, 0x2d, 0x01, 0xf8, 0xee, 0x1c, 0x27, 0xfc, 
    0x24, 0x15, 0xe7, 0x20, 0xec, 0xc8, 0xe5, 0xec, 0x09, 0x07, 0x13, 0x30, 
    0xc3, 0x09, 0xfa, 0x4a, 0xf8, 0xf8, 0xec, 0x2b, 0x48, 0xa9, 0xe6, 0xf2, 
    0x46, 0x1b, 0xe0, 0xe2, 0xff, 0xf8, 0xe9, 0x3f, 0xd0, 0x44, 0xc9, 0xc5, 
    0x2b, 0xde, 0xf4, 0xc5, 0xc9, 0x01, 0xc4, 0x21, 0xe9, 0xfc, 0xf4, 0x43, 
    0xd5, 0xef, 0x52, 0x12, 0xe4, 0xc0, 0xf5, 0xe7, 0xdc, 0x0c, 0xe1, 0x04, 
    0x2d, 0x1d, 0x1f, 0x37, 0xfc, 0x1f, 0xf7, 0xd2, 0x0d, 0xbe, 0xd8, 0x24, 
    0xcc, 0x0e, 0xc3, 0xd0, 0xc9, 0xe8, 0xf1, 0x01, 0x1d, 0xdd, 0x05, 0x1f, 
    0xc4, 0xcc, 0xa3, 0x16, 0xfe, 0x0b, 0x28, 0xda, 0x13, 0x0f, 0x0f, 0xe1, 
    0xcc, 0xd7, 0xf9, 0x28, 0x03, 0x0a, 0x31, 0x0d, 0xca, 0xf7, 0x1a, 0xfd, 
    0xf8, 0x02, 0x14, 0x33, 0xec, 0x25, 0xe6, 0xee, 0x00, 0xe6, 0x21, 0x52, 
    0xea, 0xdd, 0x0c, 0x04, 0xe2, 0x04, 0xf6, 0x18, 0x27, 0xe5, 0xe7, 0xc8, 
    0xe7, 0x2d, 0x09, 0x0d, 0x18, 0x0a, 0x05, 0xba, 0x19, 0x0b, 0x1b, 0x1e, 
    0x2f, 0x0d, 0xf6, 0xc9, 0x2e, 0x02, 0xf6, 0x1a, 0xf2, 0xc6, 0x42, 0x15, 
    0xdb, 0xd0, 0xf5, 0xf1, 0xe6, 0xf1, 0xf8, 0x1b, 0xfd, 0x11, 0xed, 0xfd, 
    0x19, 0xf5, 0x37, 0x07, 0x22, 0xce, 0x29, 0xff, 0x00, 0x07, 0x0c, 0xd9, 
    0xdf, 0x34, 0xf1, 0xf9, 0xdc, 0x0d, 0xc6, 0xff, 0xe4, 0xea, 0x1a, 0xbf, 
    0x27, 0x40, 0x0c, 0x11, 0x33, 0x0c, 0xb4, 0x2c, 0x47, 0xe3, 0xde, 0xde, 
    0x08, 0xdc, 0xee, 0x26, 0xd2, 0x0c, 0x17, 0xed, 0x08, 0xc6, 0xbe, 0xdf, 
    0xdb, 0xe1, 0x15, 0x98, 0x06, 0xc1, 0xfd, 0xc2, 0x2c, 0x2f, 0xe7, 0x23, 
    0xd3, 0xfc, 0xfd, 0xe9, 0x0c, 0x20, 0x35, 0xee, 0x12, 0xf1, 0x1d, 0x04, 
    0x18, 0x03, 0x1d, 0xf1, 0xca, 0x1d, 0xc5, 0xed, 0xf7, 0xdf, 0x2b, 0xf1, 
    0x2e, 0x31, 0x08, 0x0c, 0x1d, 0xf7, 0x26, 0x2a, 0x1e, 0xc2, 0xc1, 0xff, 
    0x2b, 0xfa, 0xd9, 0xdb, 0x29, 0xb7, 0xbd, 0xff, 0xf3, 0x20, 0xbf, 0x0d, 
    0x2d, 0xd8, 0xf1, 0xfd, 0x43, 0x01, 0xf6, 0xf8, 0xec, 0x23, 0xd2, 0x24, 
    0x98, 0x3a, 0x35, 0xfe, 0x07, 0x00, 0x2f, 0x30, 0xf9, 0x14, 0x0d, 0x40, 
    0x0d, 0xd8, 0x08, 0x10, 0x35, 0xdb, 0xe3, 0x1f, 0x28, 0xed, 0x13, 0xe3, 
    0xd0, 0x15, 0x12, 0x10, 0xe2, 0xe3, 0xdb, 0xe1, 0x1f, 0x1f, 0x01, 0x2e, 
    0xf0, 0x19, 0xaa, 0xd6, 0xd7, 0x08, 0xfd, 0xda, 0xbc, 0x1b, 0xf6, 0xc6, 
    0xe9, 0xe2, 0x32, 0x2b, 0xc3, 0x1c, 0x1e, 0xd9, 0xfa, 0xdd, 0x12, 0x0e, 
    0xe4, 0xf0, 0xe9, 0xce, 0xc8, 0xdf, 0xfb, 0xed, 0xdc, 0x01, 0x0f, 0xd9, 
    0x16, 0x18, 0xf7, 0xc0, 0xf2, 0xfb, 0xe4, 0x10, 0x1d, 0x02, 0x2d, 0xc9, 
    0xbc, 0x10, 0xf7, 0xf0, 0xe9, 0x04, 0xf6, 0x02, 0x1f, 0x09, 0xed, 0xd5, 
    0x11, 0xc8, 0xf4, 0xe4, 0x09, 0x36, 0x18, 0x29, 0xff, 0xeb, 0x19, 0xbf, 
    0x18, 0x3c, 0xf3, 0x2d, 0x2b, 0x14, 0xf3, 0x01, 0xb2, 0xfe, 0x28, 0xfe, 
    0xd1, 0xf2, 0xf5, 0xe7, 0xf0, 0xf3, 0xe2, 0xe4, 0xf7, 0x07, 0xf7, 0x38, 
    0xef, 0x00, 0x1b, 0x09, 0x23, 0x2a, 0x0f, 0x0d, 0x21, 0x0b, 0x18, 0xe8, 
    0xc7, 0x1c, 0xd8, 0xae, 0x0a, 0x2d, 0xe3, 0xf9, 0x16, 0x14, 0xd9, 0xf8, 
    0x17, 0xee, 0xe9, 0xcd, 0x28, 0xf3, 0x02, 0x0b, 0xda, 0x12, 0xf2, 0xe2, 
    0xfb, 0x00, 0xe4, 0xe3, 0x55, 0xee, 0x02, 0xf0, 0x35, 0x15, 0xf6, 0x0b, 
    0x12, 0x39, 0x29, 0x28, 0xa4, 0xc2, 0x59, 0x2d, 0x29, 0x9d, 0xd7, 0xed, 
    0xce, 0x0f, 0x30, 0xe3, 0xd0, 0x00, 0xb6, 0xfc, 0x1f, 0xa8, 0xf4, 0x12, 
    0xe1, 0xff, 0xfc, 0x0d, 0x0a, 0xd7, 0x41, 0xdc, 0x1f, 0x0b, 0xff, 0x24, 
    0xdd, 0xf1, 0xe4, 0xdd, 0x0a, 0xc9, 0x07, 0x09, 0x32, 0x09, 0xb8, 0x10, 
    0x19, 0xd6, 0xd5, 0xfb, 0xc0, 0xee, 0x37, 0xf1, 0xb7, 0xd0, 0x14, 0xff, 
    0xfc, 0xc1, 0x31, 0x20, 0xe7, 0x0d, 0xa6, 0x2f, 0xf2, 0x2b, 0xf4, 0xd8, 
    0xdb, 0xe4, 0x26, 0x12, 0xde, 0xf8, 0xe0, 0x3d, 0x18, 0xed, 0x11, 0xd6, 
    0xe1, 0xba, 0xef, 0xd5, 0xdd, 0x1b, 0xe6, 0x09, 0x36, 0x22, 0x00, 0xdd, 
    0x21, 0xe2, 0x27, 0x19, 0xbf, 0x44, 0x26, 0x19, 0xc4, 0x12, 0xf7, 0x0c, 
    0xee, 0x1a, 0xca, 0xe2, 0x03, 0x0b, 0x2f, 0x05, 0x0f, 0xdf, 0x41, 0xe4, 
    0xd9, 0x4d, 0x2d, 0x12, 0x01, 0x06, 0xfa, 0x4a, 0xd0, 0x13, 0xf5, 0x01, 
    0xe4, 0xd0, 0xed, 0xec, 0xf2, 0x0c, 0xe9, 0x24, 0x36, 0x2a, 0x14, 0x1e, 
    0xc4, 0xf2, 0x01, 0xf0, 0xd3, 0xd3, 0x36, 0x10, 0x1b, 0xee, 0x30, 0x0c, 
    0xd6, 0xf1, 0xfd, 0xff, 0x1f, 0xfa, 0x06, 0xb4, 0xf8, 0x14, 0x1d, 0x2a, 
    0xc6, 0x02, 0x09, 0xed, 0xf5, 0x06, 0xef, 0x17, 0x01, 0x38, 0x2b, 0x33, 
    0x16, 0xf2, 0x01, 0xcc, 0xeb, 0x11, 0x16, 0x27, 0xf2, 0xc4, 0x18, 0x2e, 
    0x08, 0x26, 0xeb, 0xfd, 0x02, 0x14, 0x00, 0x2b, 0xef, 0xeb, 0xfc, 0x25, 
    0x0a, 0x28, 0xf5, 0xd0, 0xba, 0x07, 0x1a, 0x2e, 0x30, 0xe2, 0xda, 0xeb, 
    0x20, 0xe4, 0xfd, 0xe1, 0xd6, 0xe5, 0xdc, 0xfe, 0x1b, 0x1b, 0xf1, 0xd1, 
    0x37, 0xf0, 0x25, 0xf1, 0x07, 0xfb, 0x1e, 0x0c, 0xe8, 0x0b, 0xfa, 0x13, 
    0x1c, 0xb1, 0xe8, 0x25, 0x10, 0xf3, 0xe7, 0x02, 0xeb, 0xa2, 0xf3, 0xd2, 
    0xc5, 0xf3, 0xbf, 0x2c, 0x7e, 0xc7, 0x01, 0x0a, 0x2a, 0x2b, 0x18, 0xe2, 
    0xcd, 0x1d, 0xc0, 0x1a, 0x81, 0x20, 0x0d, 0x2a, 0xfb, 0xc2, 0x0c, 0xf8, 
    0xe7, 0x47, 0x05, 0x24, 0xc9, 0xf5, 0xd7, 0xe5, 0x69, 0x0c, 0x13, 0x0a, 
    0x29, 0xe2, 0xf5, 0x09, 0xe7, 0xfd, 0xdf, 0x12, 0x1f, 0x08, 0xc9, 0x08, 
    0xdf, 0xd2, 0x18, 0xc6, 0x1b, 0xca, 0xe8, 0x16, 0xf4, 0xf7, 0xf0, 0xe0, 
    0x2a, 0x04, 0xf0, 0x02, 0x10, 0xcd, 0xf9, 0x09, 0xc1, 0xca, 0xe9, 0x0a, 
    0x0c, 0x07, 0xed, 0x0e, 0x1d, 0x0c, 0x29, 0xfd, 0x03, 0xfd, 0xfa, 0x0a, 
    0xf0, 0x12, 0xd8, 0xf9, 0x06, 0x16, 0x04, 0xeb, 0x15, 0x19, 0xfd, 0x2d, 
    0xf1, 0x0d, 0xf0, 0xf8, 0x0a, 0x1b, 0x18, 0x2d, 0x0a, 0xef, 0x1b, 0x18, 
    0xd0, 0xd5, 0xf3, 0xf8, 0x12, 0xe4, 0x0a, 0xaa, 0x1f, 0x16, 0xfb, 0x49, 
    0xf8, 0xdb, 0x26, 0xd8, 0x16, 0x28, 0x43, 0x24, 0x21, 0xf3, 0x2d, 0xec, 
    0x0c, 0x0c, 0xca, 0xd6, 0xff, 0x2b, 0x10, 0xf2, 0xed, 0xdd, 0x16, 0x00, 
    0x49, 0x22, 0xf7, 0xe4, 0xd1, 0x28, 0xb8, 0x12, 0x40, 0x1c, 0x13, 0xd9, 
    0xf0, 0xfb, 0x28, 0x1e, 0x06, 0xfe, 0x0c, 0xe1, 0xc7, 0x11, 0xfd, 0xc7, 
    0xd2, 0x03, 0xcc, 0xff, 0x01, 0x13, 0xf7, 0x08, 0x1b, 0xe1, 0xd7, 0x3e, 
    0xfc, 0x00, 0xfe, 0x08, 0xcf, 0x08, 0x13, 0xd7, 0xd1, 0xba, 0xe4, 0xf8, 
    0x19, 0xd7, 0x22, 0xd7, 0x0f, 0xf6, 0xdd, 0x33, 0xbb, 0xf2, 0xf0, 0xcd, 
    0x02, 0xef, 0xff, 0x0a, 0x06, 0xf2, 0xc5, 0x0a, 0xda, 0xef, 0x11, 0xf5, 
    0x12, 0xe3, 0xd8, 0xf1, 0x24, 0x02, 0xf9, 0x20, 0xe8, 0x01, 0x0b, 0x1a, 
    0xdd, 0xe6, 0x0f, 0x1e, 0xdb, 0xf2, 0x22, 0x07, 0xe9, 0xfb, 0x15, 0x27, 
    0xf1, 0xfb, 0xd4, 0x12, 0xd2, 0x90, 0xd1, 0x09, 0x1b, 0xd5, 0xf4, 0x1a, 
    0xe5, 0xb3, 0xea, 0xf6, 0x16, 0x18, 0x0e, 0x1d, 0x25, 0xab, 0x06, 0xef, 
    0x0b, 0x08, 0xce, 0xd7, 0xf8, 0x11, 0xf1, 0x0c, 0xb8, 0x25, 0xb0, 0x20, 
    0x0d, 0xc9, 0x0c, 0xb8, 0xf6, 0xff, 0xf8, 0x2a, 0xef, 0xf9, 0x20, 0xdc, 
    0x0f, 0x0c, 0x1c, 0xe5, 0xdf, 0xd0, 0xcd, 0xe2, 0xe6, 0x03, 0xe8, 0x49, 
    0xf2, 0x19, 0xf5, 0xd9, 0x23, 0x03, 0x0f, 0x25, 0xdd, 0x10, 0xc4, 0x12, 
    0xd9, 0xd5, 0x02, 0xc6, 0x39, 0xa9, 0x2c, 0xc1, 0xfe, 0x24, 0x36, 0x11, 
    0x3d, 0x19, 0x15, 0x1d, 0x8b, 0xc6, 0x3f, 0x44, 0x29, 0xc8, 0xfe, 0xf5, 
    0xd4, 0x19, 0x41, 0xe5, 0xf6, 0x05, 0xde, 0x16, 0x18, 0xe7, 0xfb, 0x03, 
    0xe9, 0xed, 0xf7, 0x18, 0x2c, 0xe9, 0x39, 0xbf, 0x1d, 0x13, 0x1f, 0x46, 
    0x00, 0x19, 0x38, 0xf5, 0xfc, 0xdb, 0xcd, 0xeb, 0x09, 0xe3, 0xd2, 0x07, 
    0xd1, 0xfe, 0x25, 0x0a, 0x2f, 0xf6, 0x27, 0x23, 0xed, 0x41, 0x3a, 0xeb, 
    0xdf, 0x1d, 0x1f, 0x13, 0x2c, 0xfe, 0xd7, 0x06, 0x10, 0xd5, 0xdb, 0x22, 
    0xea, 0x13, 0xea, 0xe8, 0x32, 0x36, 0x30, 0x13, 0xbe, 0x0e, 0xdd, 0x22, 
    0xe5, 0xed, 0x25, 0xbf, 0x3d, 0x12, 0x2a, 0x2b, 0xf6, 0x0a, 0xe1, 0xf7, 
    0xef, 0x0b, 0x12, 0xd0, 0xcb, 0x1b, 0xf8, 0x18, 0xed, 0x31, 0xeb, 0x1f, 
    0xfa, 0xfd, 0xbc, 0x32, 0x0a, 0xf7, 0xf3, 0xfc, 0x3c, 0xeb, 0xf3, 0x2d, 
    0xfb, 0xfe, 0xe2, 0xcf, 0x0f, 0x24, 0x2d, 0x3a, 0x2d, 0xcd, 0xd1, 0x25, 
    0xdd, 0xc1, 0xde, 0xba, 0x33, 0xec, 0x18, 0x0f, 0xf2, 0xdd, 0x11, 0x06, 
    0xfb, 0xce, 0x26, 0x10, 0xf0, 0xe5, 0xab, 0x4d, 0xba, 0xdb, 0xd9, 0xd5, 
    0x43, 0x1b, 0x34, 0x14, 0xff, 0x0c, 0x32, 0x14, 0xfb, 0x26, 0x02, 0x06, 
    0xab, 0xff, 0x17, 0x09, 0x2c, 0xd5, 0x09, 0x3c, 0x0e, 0x0d, 0xfa, 0xd3, 
    0xf1, 0x02, 0x0a, 0xef, 0xf6, 0x24, 0xcf, 0x2c, 0xc1, 0x19, 0xf3, 0x05, 
    0xf1, 0x34, 0xff, 0x3a, 0xed, 0x15, 0x11, 0xfd, 0x19, 0xca, 0xd7, 0x0d, 
    0xc5, 0xe1, 0x0a, 0x25, 0x0c, 0x15, 0xe2, 0xc8, 0xf3, 0x01, 0x0f, 0x25, 
    0xe7, 0xfa, 0xee, 0xf5, 0xfc, 0x14, 0x0e, 0xd1, 0x2f, 0x40, 0xf8, 0xfc, 
    0x1c, 0x08, 0x32, 0x31, 0xe5, 0x1f, 0xf0, 0xfb, 0xed, 0xd8, 0x12, 0xe8, 
    0x02, 0xe0, 0x38, 0x22, 0x17, 0x09, 0x13, 0xd0, 0x30, 0x0d, 0x14, 0x40, 
    0x2e, 0x30, 0xed, 0x00, 0xcc, 0x21, 0xe7, 0x08, 0xd6, 0x16, 0xe5, 0x15, 
    0x26, 0xdb, 0x03, 0x1f, 0x33, 0x11, 0x04, 0x0c, 0xf3, 0x14, 0xde, 0xd7, 
    0x42, 0x10, 0xe6, 0xe5, 0x26, 0xe9, 0x0f, 0xe2, 0xbd, 0x35, 0xeb, 0xce, 
    0x2e, 0x03, 0xf0, 0x28, 0xe4, 0x1e, 0xc1, 0x06, 0x24, 0x03, 0x11, 0xf6, 
    0xf6, 0x14, 0xcd, 0x28, 0x1a, 0xb7, 0xe6, 0xea, 0xc3, 0x14, 0x24, 0x21, 
    0x20, 0xf3, 0xf7, 0x12, 0xd7, 0xc4, 0x17, 0xef, 0xff, 0x09, 0xa6, 0x10, 
    0x01, 0xe0, 0xf7, 0xca, 0xdc, 0x32, 0x13, 0x28, 0xc4, 0x04, 0x10, 0xfb, 
    0xda, 0xca, 0x0a, 0xee, 0x17, 0x14, 0xb4, 0x0b, 0x0c, 0x21, 0x11, 0x05, 
    0x22, 0x33, 0x24, 0xde, 0xbb, 0x1f, 0x0b, 0xe6, 0xfb, 0x1b, 0x2b, 0x14, 
    0x0b, 0xef, 0xd4, 0xe3, 0x1a, 0xd2, 0xad, 0x2b, 0xe9, 0x23, 0x29, 0x61, 
    0x2f, 0x1e, 0xda, 0x2d, 0xeb, 0x53, 0xf4, 0xea, 0xd3, 0xe4, 0x11, 0xf6, 
    0xec, 0xb9, 0x08, 0xf8, 0x0b, 0xe2, 0x1b, 0x2f, 0x0a, 0x35, 0xdf, 0x33, 
    0x2a, 0x0d, 0x00, 0xf4, 0x00, 0x11, 0xc4, 0x3f, 0x0c, 0x19, 0xf6, 0xfe, 
    0x1b, 0xf5, 0xdc, 0x19, 0xcb, 0xe6, 0xdd, 0xf8, 0x0d, 0xeb, 0xce, 0x07, 
    0xc2, 0x06, 0x21, 0x01, 0xe8, 0xe9, 0x08, 0x0d, 0xf8, 0x29, 0x18, 0xde, 
    0xe4, 0x08, 0x3f, 0xfc, 0xd7, 0x09, 0x10, 0x0b, 0x06, 0xf4, 0x26, 0xe1, 
    0x00, 0x02, 0x32, 0xda, 0xf5, 0x48, 0x00, 0x04, 0xe0, 0xf9, 0xc2, 0xdf, 
    0xc9, 0xf3, 0xed, 0x22, 0x2d, 0x11, 0x26, 0x0e, 0x0b, 0x21, 0xd4, 0x0c, 
    0x3e, 0x12, 0x07, 0xed, 0x1a, 0xd5, 0x26, 0xbf, 0xc3, 0xeb, 0xe8, 0x25, 
    0xc0, 0x01, 0xf8, 0x12, 0xed, 0x3a, 0xe0, 0x22, 0xf5, 0xd4, 0xe0, 0xe1, 
    0xef, 0x0b, 0x23, 0xe3, 0x23, 0x24, 0x3d, 0x30, 0x2d, 0xd7, 0x27, 0x15, 
    0xe8, 0x22, 0x17, 0xf7, 0x0d, 0xd2, 0x0a, 0xe5, 0xe2, 0x1f, 0x18, 0x01, 
    0x19, 0xed, 0xd4, 0xe6, 0x06, 0x25, 0x0e, 0x1c, 0x3b, 0xfb, 0x09, 0xe8, 
    0x1b, 0x31, 0xe9, 0x18, 0xec, 0xdc, 0xd5, 0xb8, 0xe3, 0x05, 0x1d, 0x02, 
    0xfa, 0xe6, 0xeb, 0xf8, 0xee, 0x1b, 0xfa, 0xff, 0x09, 0x2b, 0x1d, 0x01, 
    0xe0, 0xc8, 0xdf, 0x20, 0xfa, 0x13, 0x09, 0xee, 0x1d, 0x2d, 0x30, 0x03, 
    0x29, 0xdc, 0x0f, 0xdf, 0x1b, 0x59, 0x3e, 0xee, 0x27, 0x25, 0x0c, 0x19, 
    0xe4, 0x34, 0xf1, 0xff, 0x27, 0x03, 0xdc, 0xe0, 0x1a, 0xe2, 0x1c, 0x0d, 
    0x3e, 0xe1, 0xd7, 0xf2, 0xe0, 0x3e, 0xf8, 0xb9, 0x42, 0x0d, 0xd9, 0x08, 
    0x1a, 0xec, 0x31, 0x04, 0xf4, 0xcf, 0xd1, 0xf6, 0xe4, 0xdf, 0xf4, 0xb2, 
    0x30, 0x03, 0xd0, 0x0b, 0xfa, 0x09, 0xe7, 0xea, 0xf8, 0xd5, 0x29, 0xe3, 
    0xf2, 0x33, 0x07, 0x2e, 0x12, 0xfe, 0x1e, 0x02, 0x17, 0x2d, 0x1a, 0x3b, 
    0x1a, 0x04, 0x06, 0xed, 0xe8, 0x0b, 0x11, 0x13, 0x0b, 0xff, 0xd7, 0xfb, 
    0x0c, 0x0d, 0x25, 0x17, 0x4d, 0x0d, 0xa1, 0xba, 0x07, 0x0b, 0xe2, 0xf4, 
    0xec, 0xf8, 0xb2, 0x19, 0xd9, 0x10, 0xfd, 0xee, 0x1e, 0x13, 0x92, 0x2a, 
    0x03, 0xcf, 0x0c, 0x1a, 0xbe, 0x2f, 0xef, 0x0c, 0xf6, 0x16, 0xea, 0x1f, 
    0xbc, 0xc7, 0xe5, 0xe4, 0xe1, 0xd3, 0x41, 0xfe, 0x33, 0xc9, 0xbc, 0x2f, 
    0x23, 0xb8, 0xe8, 0x0f, 0xea, 0x16, 0x31, 0xf5, 0x5e, 0x9f, 0x28, 0xf7, 
    0xd4, 0xd6, 0xf8, 0xf3, 0x15, 0x0b, 0x0e, 0xd3, 0xba, 0xf4, 0x11, 0xd4, 
    0xf2, 0xf7, 0xf1, 0xf2, 0x06, 0x08, 0xf0, 0x45, 0xb9, 0xcc, 0xf1, 0xf3, 
    0x1a, 0x03, 0x56, 0xe2, 0x25, 0xfd, 0x11, 0xe8, 0xcf, 0xf5, 0x47, 0x03, 
    0x2d, 0xda, 0xe3, 0xcd, 0x00, 0xd5, 0x04, 0x01, 0xc7, 0x40, 0x4d, 0x00, 
    0xef, 0xd7, 0x04, 0xec, 0xd2, 0x67, 0x11, 0xee, 0xf8, 0xde, 0xc9, 0x26, 
    0xf6, 0xe0, 0x1d, 0x12, 0x31, 0xf5, 0x23, 0x10, 0x1d, 0xe4, 0x13, 0x12, 
    0x1e, 0xf8, 0x23, 0x16, 0xe3, 0x29, 0x22, 0x6e, 0x4a, 0x13, 0xda, 0xdb, 
    0x41, 0xfd, 0xf3, 0xf7, 0xf2, 0x21, 0xd3, 0xe8, 0x45, 0xed, 0xa2, 0xf1, 
    0x4a, 0xeb, 0xff, 0xff, 0x04, 0x00, 0x00, 0x00, 0x80, 0x09, 0x00, 0x00, 
    0x11, 0xec, 0xe2, 0x11, 0x02, 0xcc, 0x1d, 0x0c, 0x20, 0x10, 0xf5, 0x10, 
    0x05, 0xf1, 0xf0, 0xf7, 0x03, 0xf9, 0xf6, 0x04, 0x20, 0xfe, 0x10, 0xfa, 
    0xf8, 0x00, 0xe5, 0x26, 0x16, 0x04, 0x03, 0xff, 0xb3, 0xf3, 0x0b, 0xf7, 
    0xdd, 0xdd, 0x16, 0x30, 0xf5, 0xde, 0x0c, 0xc8, 0xee, 0xf3, 0xc3, 0x06, 
    0x05, 0x0a, 0x25, 0x02, 0xe0, 0xec, 0xf5, 0x17, 0xf0, 0xf5, 0x1b, 0xf3, 
    0x13, 0xef, 0x2c, 0xf8, 0x13, 0xfc, 0x11, 0xf2, 0xf3, 0x00, 0xf9, 0xf7, 
    0xd7, 0x03, 0x13, 0x1c, 0x2d, 0xec, 0xf9, 0xf4, 0x07, 0xdb, 0x0e, 0xc5, 
    0x25, 0x0c, 0xe1, 0xec, 0x3e, 0xe5, 0x12, 0x02, 0xf7, 0x1c, 0xe8, 0xc0, 
    0x00, 0xe4, 0xeb, 0xe1, 0x00, 0x10, 0x1f, 0xff, 0xf6, 0xfe, 0x2f, 0xed, 
    0x01, 0x08, 0xea, 0xc1, 0xe5, 0x10, 0x01, 0x0d, 0x1c, 0xe7, 0xf7, 0x18, 
    0xe1, 0x01, 0x19, 0xd2, 0xde, 0xf0, 0xed, 0xfe, 0xd7, 0xd6, 0xe8, 0x09, 
    0x14, 0xe4, 0x3b, 0x29, 0xf2, 0xec, 0x04, 0x0a, 0x22, 0xe8, 0xfd, 0xe6, 
    0x11, 0xe1, 0x1b, 0x2e, 0x2e, 0x06, 0x01, 0x02, 0xe3, 0x09, 0x0c, 0x04, 
    0xb7, 0x1e, 0x14, 0x1c, 0x1c, 0x0b, 0x00, 0x20, 0xe9, 0xeb, 0x07, 0x2a, 
    0x30, 0xe8, 0x14, 0xf9, 0xfb, 0x0c, 0x1e, 0xf6, 0xd0, 0x0e, 0xf4, 0x13, 
    0x10, 0x2c, 0x0f, 0xef, 0x33, 0x1e, 0x15, 0xef, 0x1c, 0xd4, 0xf2, 0xd5, 
    0xe3, 0x0d, 0xdf, 0x35, 0x39, 0x0f, 0x02, 0x00, 0xf4, 0x09, 0xf1, 0xff, 
    0xff, 0x01, 0xfd, 0xff, 0x0c, 0x15, 0x18, 0x11, 0x03, 0x17, 0x0c, 0xf9, 
    0x24, 0xf6, 0x0d, 0x21, 0xf5, 0xed, 0xec, 0x26, 0x00, 0xe7, 0xe7, 0xf5, 
    0x0d, 0xf3, 0xfa, 0x1f, 0x0b, 0x1c, 0x40, 0x00, 0x28, 0xfd, 0x12, 0x04, 
    0xae, 0x04, 0x03, 0x0a, 0x23, 0x00, 0x10, 0x04, 0xe2, 0xfe, 0x1c, 0xeb, 
    0x1a, 0xf3, 0xfe, 0x0b, 0x0d, 0xff, 0x0e, 0xff, 0xff, 0x0e, 0xe6, 0x33, 
    0x04, 0xd6, 0xe9, 0xf7, 0xfc, 0xfe, 0x03, 0x1f, 0xfc, 0x14, 0x08, 0xfe, 
    0x0a, 0x11, 0xce, 0x14, 0x13, 0x11, 0x12, 0xf5, 0xf6, 0xc7, 0xf9, 0xfe, 
    0x0c, 0xe1, 0xd6, 0x0e, 0xf7, 0xe5, 0x09, 0x19, 0xd4, 0x06, 0xe4, 0x10, 
    0x0e, 0xfa, 0xdc, 0xde, 0xfb, 0x2a, 0xff, 0xde, 0x08, 0x21, 0x04, 0x02, 
    0x00, 0xf6, 0xf8, 0x0b, 0x01, 0x02, 0xf6, 0x14, 0x03, 0x1e, 0x0f, 0x0e, 
    0x18, 0x1c, 0x07, 0xfe, 0xd2, 0x14, 0x14, 0x09, 0xe0, 0xfe, 0x06, 0x01, 
    0x12, 0x27, 0x0f, 0x34, 0x23, 0x2a, 0xed, 0x08, 0x10, 0x1f, 0xff, 0xe3, 
    0x10, 0x11, 0xf8, 0x0b, 0x01, 0xf8, 0x18, 0x0f, 0x14, 0x07, 0x00, 0xf7, 
    0xfe, 0xd1, 0x04, 0x06, 0x2e, 0xef, 0xec, 0x0a, 0xfd, 0x19, 0x09, 0x12, 
    0xcd, 0x0e, 0xe9, 0xf5, 0xfc, 0x3c, 0xed, 0xf6, 0xe0, 0xda, 0x0c, 0x0a, 
    0x09, 0xc0, 0x1a, 0x0c, 0xf7, 0x03, 0x10, 0xf1, 0xf8, 0xbd, 0xf5, 0xd6, 
    0xe4, 0xfa, 0x1a, 0x11, 0xef, 0x17, 0x00, 0x13, 0xf7, 0xf4, 0xf7, 0xfc, 
    0x02, 0xf0, 0xee, 0xf5, 0xf4, 0x18, 0x31, 0xee, 0xf1, 0xd3, 0xf3, 0x31, 
    0x0c, 0xf3, 0x0f, 0x15, 0xf2, 0xf7, 0xe2, 0xf0, 0xe1, 0x0d, 0x15, 0x08, 
    0xf4, 0xea, 0x00, 0x0f, 0x0e, 0x12, 0x08, 0x0c, 0x26, 0x02, 0xd8, 0x0e, 
    0xdd, 0x26, 0x0d, 0xf1, 0x22, 0xfb, 0xfd, 0x0f, 0x02, 0x38, 0x0e, 0x15, 
    0xfe, 0xfe, 0xf5, 0x00, 0x22, 0x13, 0x2c, 0xff, 0x05, 0x0c, 0x0b, 0xff, 
    0xda, 0x05, 0xf5, 0xff, 0x17, 0x0f, 0xf3, 0x11, 0xf7, 0x00, 0xf6, 0xf0, 
    0xff, 0x03, 0x12, 0x0f, 0xf1, 0xf9, 0xe8, 0x02, 0x1e, 0x28, 0xf9, 0x48, 
    0xd3, 0xda, 0xe6, 0x01, 0xb9, 0xf6, 0x12, 0x95, 0xed, 0xcf, 0x0e, 0xa0, 
    0xf7, 0x07, 0x3a, 0xec, 0x07, 0xde, 0xff, 0x02, 0x32, 0x36, 0xf6, 0x18, 
    0xe7, 0xde, 0x00, 0x04, 0x0f, 0xed, 0x0d, 0x01, 0xd7, 0x10, 0x89, 0x0c, 
    0x06, 0x02, 0x1f, 0xef, 0x01, 0x2d, 0xbe, 0xf3, 0x1b, 0xc9, 0xeb, 0xc6, 
    0xc8, 0xd0, 0x18, 0x10, 0x3f, 0x12, 0xef, 0xf4, 0xfc, 0xf6, 0xd9, 0xe7, 
    0x04, 0xe9, 0x0d, 0xed, 0x0a, 0xf7, 0xf2, 0xfa, 0x1e, 0x29, 0x1e, 0xf6, 
    0xf9, 0x0c, 0xf9, 0xc1, 0x0a, 0x0a, 0xea, 0x0b, 0x0f, 0xea, 0x07, 0xd3, 
    0xf4, 0x81, 0x2e, 0xdd, 0xe8, 0xf7, 0x33, 0x04, 0xfc, 0x0c, 0xfa, 0xee, 
    0xfd, 0x31, 0x11, 0x27, 0xfd, 0x09, 0x0d, 0xdc, 0x16, 0xf6, 0x2d, 0xfb, 
    0xd4, 0x07, 0x02, 0xd6, 0x0b, 0x12, 0x0d, 0xfd, 0x24, 0x07, 0xde, 0x09, 
    0x0f, 0xd4, 0xf6, 0xcb, 0xe8, 0xdf, 0xed, 0x01, 0xf9, 0xfa, 0x0d, 0xe4, 
    0xfa, 0x0e, 0xe3, 0x0f, 0xf6, 0x09, 0xfb, 0xf9, 0x14, 0x26, 0x24, 0xc0, 
    0x0a, 0xf6, 0xc8, 0xf8, 0xec, 0xf7, 0xf4, 0x0f, 0xe1, 0x1f, 0xee, 0xfb, 
    0xf1, 0x12, 0x02, 0xdc, 0x17, 0x0f, 0x17, 0x0f, 0x16, 0xf6, 0xc5, 0xe8, 
    0x0a, 0x09, 0x24, 0xed, 0x1a, 0xfb, 0xeb, 0x13, 0xea, 0x0a, 0x0e, 0x14, 
    0xf2, 0x17, 0xf6, 0x1b, 0x00, 0xfe, 0xe8, 0xee, 0x13, 0x24, 0xfc, 0xd7, 
    0x07, 0xfd, 0x23, 0x1c, 0x0e, 0x1b, 0xf9, 0xf0, 0xe8, 0x24, 0xe1, 0xe0, 
    0x01, 0x1d, 0xe1, 0xe7, 0x00, 0x13, 0xd1, 0x9b, 0xf6, 0xde, 0xea, 0xe0, 
    0x08, 0x01, 0x01, 0x14, 0xf6, 0xf7, 0x07, 0xed, 0x14, 0x0a, 0xfb, 0xff, 
    0xed, 0x2f, 0xf9, 0x1d, 0xe2, 0xfe, 0x0f, 0x4e, 0x14, 0xff, 0x04, 0x10, 
    0xea, 0x05, 0x3f, 0x1e, 0x08, 0x0a, 0x10, 0x26, 0xf6, 0xea, 0xf6, 0xf3, 
    0x06, 0xf9, 0x16, 0x0c, 0x1e, 0xc3, 0xfa, 0x27, 0x25, 0x12, 0xc8, 0xee, 
    0xeb, 0x12, 0x07, 0xfb, 0xfa, 0xda, 0xef, 0x09, 0xe8, 0x19, 0x18, 0x0e, 
    0xed, 0x00, 0xe9, 0xe2, 0xf3, 0xfd, 0xfe, 0xfa, 0xec, 0xf0, 0x2d, 0x1e, 
    0x20, 0x2a, 0xe7, 0xf6, 0x0f, 0x08, 0xfa, 0x32, 0x0c, 0xf9, 0x04, 0xf1, 
    0xe2, 0x27, 0x2e, 0xf8, 0xdd, 0x13, 0xf4, 0x1b, 0xff, 0x0e, 0x07, 0xee, 
    0xfc, 0x12, 0xe3, 0xe2, 0x08, 0xfa, 0x00, 0x1b, 0x07, 0xfd, 0xe3, 0xf2, 
    0xea, 0x0a, 0xe9, 0xe5, 0xeb, 0xd9, 0x21, 0x03, 0x06, 0xe2, 0xf7, 0x1d, 
    0xdb, 0xe2, 0xda, 0x01, 0xd5, 0xc8, 0x28, 0x5a, 0x0e, 0x22, 0x05, 0xc3, 
    0xed, 0xeb, 0xfd, 0x14, 0x1b, 0x0c, 0xe6, 0x12, 0xec, 0xf7, 0xe5, 0x00, 
    0x11, 0x14, 0xe8, 0xea, 0x0e, 0x17, 0x1a, 0x12, 0x29, 0xf5, 0x1c, 0xcf, 
    0xda, 0x12, 0x1a, 0xdb, 0x0c, 0xea, 0xe6, 0xfb, 0xe6, 0x43, 0x1a, 0xf4, 
    0xed, 0xfa, 0xf8, 0x3f, 0xfe, 0x07, 0x20, 0x14, 0xfc, 0xfc, 0xe5, 0xf5, 
    0xfc, 0x05, 0x1f, 0xf5, 0x19, 0x20, 0x11, 0x17, 0x0c, 0x08, 0x06, 0xf3, 
    0xfd, 0x1f, 0x03, 0xfe, 0xd3, 0xf9, 0x0b, 0xec, 0x34, 0x36, 0xff, 0xd8, 
    0x01, 0xfb, 0x1a, 0x08, 0x0b, 0x31, 0xe1, 0xd5, 0x08, 0x17, 0x02, 0x15, 
    0xf6, 0xe4, 0xfe, 0xf4, 0xf8, 0x07, 0xfa, 0xde, 0x0d, 0x1f, 0x0d, 0x2d, 
    0xe6, 0x1c, 0xf0, 0xfb, 0xd1, 0xcc, 0x05, 0xc3, 0x1b, 0x1c, 0x48, 0x17, 
    0x0e, 0x0c, 0x05, 0xea, 0xf1, 0xf3, 0xfa, 0xcb, 0x08, 0xd8, 0xda, 0xd8, 
    0xd9, 0xe3, 0x2e, 0xf9, 0x13, 0x01, 0x0c, 0xda, 0x0f, 0xf0, 0xfe, 0xf5, 
    0x1f, 0xf2, 0x24, 0xdf, 0xde, 0xf4, 0xf7, 0xed, 0x02, 0x19, 0xe0, 0x20, 
    0x20, 0xe6, 0xff, 0x18, 0xf0, 0x26, 0x0b, 0xf8, 0x0a, 0x26, 0xfd, 0xb6, 
    0xe2, 0xee, 0xf4, 0x02, 0x43, 0xf4, 0x0f, 0xed, 0x02, 0xf2, 0xfa, 0xed, 
    0x0f, 0x2c, 0xd9, 0xd9, 0x24, 0xfe, 0xff, 0xf9, 0x0a, 0x03, 0xd1, 0x1a, 
    0xb7, 0x1c, 0xf7, 0x20, 0xe0, 0x05, 0xed, 0x12, 0xfb, 0x05, 0xe0, 0x18, 
    0xfc, 0x0a, 0xf5, 0x24, 0x0c, 0xf6, 0xff, 0xf8, 0xf9, 0x14, 0x04, 0xf7, 
    0x15, 0xf0, 0xf2, 0xf7, 0x1c, 0xe5, 0xda, 0x27, 0xfe, 0x24, 0x36, 0xfd, 
    0xe5, 0xe0, 0x0c, 0x0f, 0x15, 0xf2, 0x0c, 0x27, 0x1d, 0xe5, 0xea, 0x03, 
    0x0a, 0x15, 0x0c, 0x07, 0xf0, 0x02, 0xdd, 0x07, 0x03, 0x07, 0x0a, 0x06, 
    0x29, 0xeb, 0x20, 0x09, 0x09, 0x03, 0x28, 0x02, 0xdc, 0x20, 0x39, 0xee, 
    0x72, 0x0c, 0x1a, 0xf3, 0x0a, 0xe3, 0x09, 0xf1, 0x17, 0x08, 0xfb, 0xfd, 
    0xf0, 0x0e, 0x0e, 0x1a, 0xd0, 0xe4, 0xf1, 0x08, 0xda, 0x02, 0xf6, 0xf6, 
    0xd8, 0xfd, 0xdc, 0xfd, 0xf6, 0xdc, 0xf5, 0xf3, 0xea, 0xda, 0xe5, 0xdb, 
    0xf4, 0x57, 0x27, 0xe5, 0xde, 0x0a, 0x20, 0x08, 0x12, 0xfc, 0xd8, 0x15, 
    0x1b, 0xdb, 0xec, 0x06, 0x02, 0xac, 0x22, 0x03, 0xcf, 0x1e, 0xf0, 0xfd, 
    0x03, 0x08, 0xff, 0x23, 0x02, 0xdf, 0x49, 0x21, 0x12, 0x1c, 0x14, 0x0c, 
    0x21, 0x02, 0xf1, 0x07, 0x19, 0x08, 0x12, 0x0b, 0xeb, 0x04, 0x17, 0xbe, 
    0x1c, 0xe1, 0xe6, 0x17, 0x13, 0xe1, 0xfd, 0xf7, 0xfb, 0x10, 0xfc, 0xe7, 
    0xfc, 0x0e, 0xef, 0xd9, 0x03, 0x09, 0x1d, 0x02, 0x16, 0x12, 0x17, 0x2a, 
    0xf3, 0x05, 0xd7, 0x17, 0x02, 0x05, 0x11, 0xf0, 0x29, 0xd5, 0x00, 0x1a, 
    0x1f, 0x2d, 0x1f, 0x07, 0x32, 0x02, 0x11, 0xe9, 0xe5, 0xb3, 0x11, 0x0a, 
    0x37, 0x21, 0xf2, 0x14, 0xf8, 0xe9, 0xfe, 0xf6, 0x18, 0xf8, 0xfc, 0xba, 
    0xfa, 0xde, 0x0c, 0xf2, 0x05, 0x19, 0xf0, 0xd8, 0xf9, 0x30, 0x1e, 0xf2, 
    0xd5, 0xdb, 0xdc, 0xe1, 0xd3, 0xe9, 0x1c, 0xeb, 0x0f, 0x2b, 0x2d, 0x13, 
    0x13, 0x00, 0x39, 0xf8, 0xff, 0x18, 0xc9, 0x0a, 0xf0, 0x1a, 0x17, 0x19, 
    0xf9, 0x07, 0x06, 0x0c, 0x03, 0xfb, 0xcf, 0xee, 0xff, 0x09, 0xe6, 0x03, 
    0xf6, 0xe7, 0x15, 0x0d, 0x07, 0x09, 0xf8, 0xcb, 0x23, 0xeb, 0x1f, 0x03, 
    0xe7, 0xf2, 0x2a, 0x18, 0xf5, 0x09, 0x10, 0xe8, 0x12, 0xee, 0x05, 0x18, 
    0x09, 0xf5, 0x35, 0x26, 0x25, 0x10, 0x16, 0x13, 0x0b, 0xe4, 0x02, 0x39, 
    0x2b, 0x11, 0xf7, 0x11, 0xed, 0x1b, 0x35, 0x0d, 0x02, 0x0f, 0x11, 0xf0, 
    0xbf, 0x0b, 0x09, 0x02, 0x04, 0x13, 0xf1, 0xfa, 0xf4, 0xf1, 0x07, 0x0e, 
    0x0b, 0xf2, 0x01, 0x00, 0x0e, 0x25, 0xed, 0xd8, 0xea, 0xd7, 0x0a, 0x01, 
    0xe8, 0x35, 0xfd, 0xe9, 0x2c, 0x00, 0xf4, 0xfd, 0x08, 0xbe, 0x05, 0x44, 
    0xe1, 0xf0, 0xfb, 0xfc, 0xf8, 0x28, 0xfd, 0xf9, 0xd6, 0x04, 0xfd, 0xe9, 
    0x19, 0x07, 0xf7, 0xea, 0xf2, 0x08, 0x0a, 0x12, 0x19, 0x0d, 0x15, 0x08, 
    0x05, 0x0e, 0xf4, 0xf8, 0xed, 0xd9, 0x00, 0xe8, 0xc6, 0x28, 0x2e, 0xeb, 
    0x11, 0x0f, 0x02, 0x15, 0xeb, 0xd8, 0x0a, 0xea, 0x2a, 0x18, 0x0c, 0x27, 
    0x02, 0xf5, 0xe8, 0x08, 0xfd, 0x02, 0x12, 0xfe, 0x04, 0x2a, 0xf7, 0x04, 
    0x02, 0xf0, 0x10, 0xfd, 0xfe, 0xe3, 0x31, 0x3b, 0xf7, 0xd8, 0x07, 0xe8, 
    0xd2, 0x12, 0xf9, 0xda, 0xcf, 0x1a, 0x20, 0x06, 0xfc, 0x25, 0x0e, 0xd9, 
    0xea, 0x25, 0xef, 0xf7, 0x3d, 0x14, 0x0f, 0x2a, 0x11, 0x0c, 0xeb, 0x11, 
    0xff, 0x05, 0xe6, 0x01, 0x16, 0xf7, 0x15, 0x21, 0xe7, 0x09, 0xde, 0x0c, 
    0xfc, 0x17, 0x23, 0xd7, 0x0e, 0xde, 0x06, 0x11, 0x0c, 0x25, 0x04, 0xe7, 
    0x29, 0xf7, 0x1a, 0x22, 0xff, 0x04, 0xfb, 0x01, 0x02, 0x1b, 0x28, 0xf9, 
    0xf9, 0x2f, 0xee, 0x03, 0xf2, 0xf6, 0x0b, 0xff, 0x19, 0x2a, 0xfe, 0x1b, 
    0xe6, 0xe6, 0x09, 0xe0, 0xed, 0xf6, 0x08, 0xe9, 0x01, 0x11, 0xc8, 0xf6, 
    0xd4, 0xf1, 0x0a, 0xaf, 0x1f, 0x08, 0x0c, 0xf6, 0x68, 0xec, 0xf5, 0x1a, 
    0x06, 0xef, 0xe7, 0xb9, 0xf9, 0x0d, 0xf5, 0xe5, 0x05, 0x0d, 0x02, 0xdb, 
    0x1a, 0xf3, 0xc4, 0x05, 0xb4, 0xec, 0x17, 0x0e, 0x0b, 0x22, 0x08, 0xec, 
    0xff, 0xd9, 0x16, 0xfb, 0x10, 0x0f, 0x07, 0xef, 0xe2, 0xde, 0xfe, 0xdf, 
    0x12, 0xe3, 0x06, 0xf9, 0xe0, 0xf5, 0xe9, 0xfa, 0x10, 0xec, 0x1d, 0x1c, 
    0x00, 0xed, 0xf2, 0xf6, 0x1e, 0xd2, 0xf7, 0xe2, 0xe2, 0xfa, 0xde, 0x26, 
    0x04, 0x1c, 0x03, 0xd6, 0xef, 0x10, 0x12, 0x02, 0x09, 0xf6, 0xef, 0x04, 
    0x19, 0xee, 0x17, 0xf9, 0x00, 0x12, 0x14, 0xfa, 0x2e, 0x0e, 0xf0, 0xe3, 
    0xdc, 0xfc, 0x2a, 0xe8, 0xe6, 0xfd, 0x26, 0xe5, 0xe5, 0x37, 0x19, 0xc5, 
    0xdc, 0x1e, 0x17, 0x05, 0xed, 0x0a, 0xfe, 0xe8, 0xfb, 0x0c, 0x0f, 0x21, 
    0x03, 0x29, 0xfb, 0x0d, 0xff, 0xf1, 0x04, 0x03, 0xd5, 0xa6, 0x0b, 0xfe, 
    0x10, 0x0c, 0x0a, 0x14, 0x01, 0x0e, 0xec, 0x21, 0x25, 0x13, 0x26, 0x24, 
    0xf6, 0xca, 0xe5, 0x27, 0x23, 0xe3, 0xed, 0x02, 0x1d, 0x06, 0x43, 0x0a, 
    0x01, 0xf1, 0x12, 0x1b, 0xdf, 0x1c, 0x02, 0x12, 0x28, 0xfa, 0x2e, 0x07, 
    0xf6, 0xf1, 0x07, 0xe1, 0x1a, 0xe3, 0x0a, 0xd9, 0x0a, 0xf7, 0xed, 0x12, 
    0xf7, 0x0f, 0x0b, 0xee, 0xf4, 0xc8, 0x0f, 0xe3, 0x41, 0x13, 0xd8, 0x0c, 
    0xfc, 0x10, 0x3f, 0x0a, 0xec, 0xeb, 0x1d, 0x17, 0x03, 0xf7, 0x0a, 0xfd, 
    0x05, 0xd0, 0x1e, 0x00, 0xf1, 0xf2, 0xf6, 0xfd, 0x09, 0xf2, 0xd5, 0xd0, 
    0x35, 0xf1, 0x01, 0xf2, 0x18, 0xbd, 0xe0, 0x1d, 0xf7, 0x17, 0x1b, 0xfe, 
    0xda, 0x25, 0x28, 0x1b, 0x08, 0x0c, 0x0f, 0x12, 0xec, 0x17, 0x02, 0x04, 
    0x2f, 0xf2, 0x1d, 0x27, 0xdf, 0xef, 0xec, 0x03, 0x06, 0x17, 0xfb, 0x36, 
    0x21, 0x13, 0xe7, 0xe3, 0xe0, 0x10, 0xee, 0x1e, 0xf3, 0xc3, 0x19, 0x0c, 
    0xfc, 0xfa, 0xf7, 0x1b, 0x06, 0xf3, 0xde, 0xdd, 0x13, 0x19, 0x16, 0x04, 
    0x04, 0xeb, 0xdd, 0x1b, 0xe9, 0x22, 0x1b, 0x24, 0xd5, 0xe8, 0x00, 0x04, 
    0xe0, 0x15, 0x16, 0x27, 0x3c, 0xeb, 0xf4, 0x0f, 0xf7, 0xb2, 0xe9, 0x13, 
    0xfa, 0xf5, 0x3e, 0x25, 0x15, 0x0c, 0xd9, 0xa0, 0x32, 0xcf, 0x03, 0x20, 
    0x46, 0x12, 0xe6, 0xfa, 0xe7, 0xff, 0x07, 0xcc, 0x0b, 0x01, 0xe1, 0xc6, 
    0xec, 0xe1, 0x22, 0x07, 0xdb, 0xe3, 0xd4, 0xe3, 0xd5, 0x12, 0x0a, 0x09, 
    0xff, 0x10, 0x15, 0xf9, 0x06, 0x03, 0xf7, 0x19, 0x1a, 0x05, 0x22, 0x35, 
    0xf2, 0x02, 0x16, 0xf3, 0xf6, 0x21, 0x03, 0x01, 0x08, 0xce, 0x14, 0xfe, 
    0xfa, 0x1d, 0xd5, 0xf3, 0x0c, 0x31, 0x10, 0x11, 0xd1, 0xd9, 0xec, 0x0b, 
    0x17, 0xf2, 0xe8, 0xda, 0x12, 0x13, 0xf6, 0xf6, 0x0b, 0x12, 0x12, 0x01, 
    0xf2, 0xeb, 0x17, 0xf7, 0x08, 0xe7, 0xf5, 0xe4, 0xf7, 0x18, 0xdc, 0xd1, 
    0xfd, 0xf6, 0x11, 0xf9, 0x1a, 0xe1, 0xea, 0x22, 0x28, 0x0c, 0xe2, 0x02, 
    0x1c, 0xf0, 0xf0, 0x20, 0x10, 0x36, 0xf2, 0xcd, 0xf5, 0xf7, 0xf6, 0x19, 
    0x23, 0xfb, 0xe1, 0xf8, 0x00, 0xff, 0xd6, 0xf5, 0xf5, 0x16, 0x10, 0xfe, 
    0x0a, 0x35, 0xf7, 0x1e, 0xfb, 0xf6, 0xf6, 0xe2, 0x22, 0xd3, 0xea, 0xf6, 
    0xdc, 0xfa, 0xf2, 0x2a, 0x22, 0x06, 0xf9, 0x07, 0xfd, 0x25, 0x1c, 0xec, 
    0xe3, 0x07, 0xec, 0x00, 0x1b, 0xf5, 0x0d, 0x07, 0x4c, 0xf0, 0xef, 0x22, 
    0x18, 0x14, 0x17, 0x04, 0x1e, 0xeb, 0x15, 0x0e, 0x01, 0x0e, 0x17, 0xc6, 
    0x1b, 0x27, 0x01, 0x07, 0x01, 0xf5, 0xdd, 0x21, 0x16, 0x27, 0xf6, 0x17, 
    0x1c, 0xd6, 0xe3, 0xdc, 0x06, 0xef, 0xf1, 0xfd, 0x0c, 0x15, 0x3f, 0x07, 
    0xf2, 0x1f, 0x1f, 0x0f, 0xf7, 0x13, 0x12, 0x0d, 0xf7, 0xfc, 0x15, 0xea, 
    0xff, 0xfe, 0x12, 0x28, 0x0e, 0x07, 0x00, 0xe2, 0x13, 0x01, 0x1c, 0xf7, 
    0x1f, 0x0a, 0xfb, 0xfe, 0x0e, 0x15, 0xd5, 0xf3, 0x20, 0xce, 0x06, 0xf2, 
    0x01, 0x13, 0x0d, 0xde, 0xd4, 0xcf, 0xd5, 0xbb, 0x1a, 0xdb, 0xf3, 0xfa, 
    0xfc, 0x17, 0x18, 0xd9, 0x00, 0xce, 0xf9, 0xcc, 0x0a, 0xf4, 0x0a, 0x07, 
    0xd1, 0x27, 0xe3, 0x16, 0xf1, 0xf7, 0x16, 0x08, 0x16, 0x03, 0x1c, 0x0f, 
    0x12, 0x09, 0xfe, 0xfe, 0xf6, 0xf8, 0xfa, 0x04, 0xee, 0xfe, 0x0f, 0xf8, 
    0x10, 0x1f, 0xe7, 0x18, 0x14, 0xe2, 0x1b, 0x2a, 0x1b, 0xde, 0x11, 0xf2, 
    0xe6, 0x40, 0x0e, 0x08, 0xe0, 0x06, 0x0f, 0x0a, 0x19, 0xeb, 0x1d, 0x00, 
    0xe6, 0xfc, 0xf9, 0x04, 0xe7, 0xfe, 0xee, 0x02, 0x10, 0x08, 0x1a, 0x05, 
    0xf9, 0x20, 0x04, 0xf4, 0xd3, 0xfe, 0xee, 0x2e, 0x2b, 0x02, 0xf2, 0x14, 
    0x21, 0x12, 0x15, 0x06, 0xf9, 0x27, 0xea, 0x24, 0x29, 0xe9, 0xfb, 0x50, 
    0xf4, 0xfb, 0x1e, 0x34, 0xfd, 0x0e, 0xcc, 0x10, 0x05, 0x21, 0xfa, 0xfa, 
    0xf4, 0x2d, 0x05, 0xf1, 0xf6, 0x09, 0x0a, 0xf6, 0xfa, 0x13, 0xff, 0xfc, 
    0xf6, 0xf1, 0x19, 0x1c, 0x0a, 0xc5, 0xed, 0xde, 0x0b, 0x10, 0x0a, 0x32, 
    0x08, 0xc9, 0x2b, 0x09, 0xd8, 0x1b, 0x1c, 0xf9, 0x07, 0xf0, 0xff, 0x14, 
    0x20, 0x03, 0x36, 0x0f, 0xfc, 0xec, 0x15, 0xec, 0x21, 0xec, 0xeb, 0x27, 
    0x0c, 0xc7, 0x04, 0x17, 0x0d, 0xee, 0xec, 0x45, 0x17, 0xfa, 0xff, 0xe6, 
    0x06, 0xf7, 0x22, 0xb4, 0x26, 0x0b, 0x06, 0x1f, 0x0b, 0x03, 0xd1, 0xf0, 
    0x10, 0xf9, 0x30, 0x0f, 0xe6, 0xfb, 0xf6, 0xf3, 0x04, 0xe5, 0xeb, 0x0b, 
    0x0b, 0xd2, 0xd2, 0x24, 0xec, 0x05, 0xc3, 0x07, 0x20, 0x05, 0xfc, 0xf1, 
    0xfe, 0xf0, 0x0a, 0xf2, 0x13, 0x0c, 0x11, 0xfb, 0x07, 0x11, 0xfe, 0xea, 
    0xf8, 0xe9, 0xf4, 0x1c, 0x1f, 0x0d, 0x31, 0x18, 0x1f, 0x26, 0xe5, 0xec, 
    0x0e, 0x10, 0x0f, 0xe9, 0x37, 0x20, 0xee, 0x16, 0x15, 0x33, 0x12, 0xf8, 
    0x05, 0x10, 0x1e, 0xf7, 0x03, 0xf4, 0x00, 0x2e, 0x01, 0x14, 0xf8, 0x00, 
    0xeb, 0xfd, 0x0e, 0x0c, 0x12, 0xf9, 0xf7, 0xe6, 0x36, 0x00, 0x1a, 0x11, 
    0xf5, 0x15, 0xe3, 0xf7, 0x1a, 0x2e, 0x12, 0xd4, 0x03, 0xc9, 0xdf, 0x35, 
    0x01, 0x1f, 0x1a, 0xf4, 0x0f, 0xdc, 0xe9, 0xf4, 0xf2, 0xe9, 0xfe, 0xfc, 
    0xcf, 0x10, 0x13, 0x0f, 0x06, 0x09, 0x0f, 0x1a, 0xee, 0x09, 0x0d, 0x17, 
    0x16, 0x23, 0x1d, 0xef, 0xcb, 0x1d, 0x2b, 0xd7, 0xdc, 0xfa, 0x29, 0xf8, 
    0x09, 0x2c, 0x12, 0x36, 0xf5, 0xf6, 0xa8, 0x2a, 0x23, 0xf5, 0x10, 0xf9, 
    0xff, 0xfd, 0xe5, 0x02, 0x17, 0xf9, 0x01, 0x18, 0xfc, 0x1c, 0x0d, 0xf7, 
    0x09, 0x07, 0x28, 0x11, 0x0f, 0x0b, 0xda, 0x0c, 0x01, 0x17, 0xce, 0xe6, 
    0x11, 0x1d, 0x02, 0x31, 0x2d, 0x16, 0x11, 0xf0, 0xd6, 0xf4, 0xff, 0xff, 
    0x04, 0x00, 0x00, 0x00, 0x00, 0x01, 0x00, 0x00, 0x85, 0x1a, 0x39, 0xbe, 
    0x34, 0x45, 0xd3, 0x3d, 0xb3, 0x7a, 0xeb, 0x3b, 0xf5, 0x69, 0x19, 0x3e, 
    0xac, 0x09, 0x74, 0xbe, 0x4f, 0x35, 0xb9, 0xbd, 0xb5, 0x81, 0x6c, 0xbe, 
    0x8e, 0xb9, 0x52, 0xbe, 0x19, 0x5b, 0xb4, 0xbd, 0x7d, 0xa9, 0x3f, 0xbe, 
    0xb1, 0x6a, 0xa9, 0x3d, 0xf5, 0xc8, 0x52, 0xbd, 0x61, 0xd5, 0x37, 0xbe, 
    0x5b, 0x73, 0xc0, 0xbd, 0x8e, 0x36, 0x87, 0xbc, 0x47, 0x68, 0x22, 0x3c, 
    0x76, 0x01, 0x1c, 0xbd, 0x1c, 0xae, 0x5b, 0xbe, 0x59, 0xbc, 0xb1, 0x3d, 
    0x6f, 0x61, 0x51, 0xbe, 0xb2, 0x8a, 0xc2, 0x3d, 0x92, 0x6f, 0x0a, 0x3e, 
    0xfb, 0xde, 0x4e, 0x3d, 0x5a, 0x6e, 0x0c, 0xbe, 0x93, 0x80, 0x74, 0x3d, 
    0x93, 0x53, 0x02, 0x3e, 0x2d, 0x93, 0xde, 0x3d, 0xa3, 0x70, 0x93, 0xbc, 
    0x08, 0xdc, 0x09, 0xbe, 0x3d, 0x8f, 0x27, 0x3e, 0xdf, 0xbf, 0xb8, 0xbd, 
    0x61, 0xdc, 0x99, 0xbd, 0x22, 0x41, 0x4c, 0xbd, 0xcb, 0xb7, 0x04, 0xbe, 
    0xe9, 0xf0, 0x58, 0x3c, 0x03, 0x9f, 0x7d, 0x3d, 0x32, 0xfa, 0x8e, 0xbc, 
    0x3f, 0x78, 0x12, 0xbe, 0xa0, 0xd7, 0x26, 0xbe, 0x9e, 0x06, 0x59, 0xbe, 
    0xd5, 0x0f, 0x4f, 0x3d, 0x3f, 0xbb, 0xc7, 0x3d, 0xae, 0xbe, 0x09, 0x3e, 
    0x26, 0xe0, 0x17, 0xbe, 0xea, 0xc6, 0xbe, 0xbe, 0xad, 0x7f, 0xa6, 0x3d, 
    0xd4, 0x7f, 0x64, 0xbe, 0xcc, 0xe9, 0x85, 0x3d, 0x98, 0x74, 0x1f, 0x3e, 
    0x88, 0x38, 0xef, 0xbd, 0x29, 0xda, 0x88, 0xbc, 0x97, 0xe9, 0x1e, 0xbc, 
    0x63, 0x9f, 0xbd, 0xbc, 0x89, 0x97, 0xe4, 0xbd, 0xab, 0xaa, 0x2d, 0x3e, 
    0xbd, 0x32, 0x0e, 0xbe, 0xa7, 0xa3, 0x87, 0xbd, 0x40, 0x22, 0xdc, 0xbd, 
    0x05, 0x33, 0xe4, 0xbd, 0xc8, 0xcc, 0x97, 0xbe, 0xab, 0x2b, 0x29, 0xbd, 
    0x3c, 0xb3, 0x17, 0xbe, 0xaf, 0xc2, 0x02, 0x3d, 0xe6, 0xd6, 0xbc, 0xbc, 
    0xe2, 0xf5, 0xff, 0xff, 0x04, 0x00, 0x00, 0x00, 0x08, 0x00, 0x00, 0x00, 
    0xa4, 0x0e, 0xbe, 0xbd, 0xd4, 0x0b, 0xbe, 0x3d, 0xf6, 0xf5, 0xff, 0xff, 
    0x04, 0x00, 0x00, 0x00, 0x40, 0x00, 0x00, 0x00, 0xf5, 0xfc, 0x96, 0x3e, 
    0x18, 0x39, 0x31, 0xbe, 0xe7, 0x39, 0x32, 0x3c, 0xfd, 0xa6, 0x99, 0x3e, 
    0xa2, 0xf5, 0xfc, 0x3d, 0xb9, 0xf5, 0x85, 0xbc, 0xd1, 0xe0, 0x9f, 0x3e, 
    0x9f, 0x78, 0x70, 0x3d, 0xaa, 0x77, 0x26, 0x3e, 0x7a, 0xc3, 0xa2, 0x3d, 
    0x27, 0xf3, 0x74, 0x3e, 0xdd, 0xb4, 0x40, 0x3d, 0xfc, 0x34, 0xe7, 0xbc, 
    0x95, 0xfb, 0xfb, 0xbd, 0x22, 0x7d, 0xe7, 0x3c, 0xd2, 0x75, 0x43, 0xbc, 
    0x42, 0xf6, 0xff, 0xff, 0x04, 0x00, 0x00, 0x00, 0x80, 0x00, 0x00, 0x00, 
    0x37, 0x54, 0x1b, 0xbe, 0xaf, 0x62, 0x36, 0x3d, 0xef, 0xb0, 0x10, 0xbe, 
    0x95, 0x01, 0x82, 0x3c, 0xc6, 0x99, 0xdf, 0xbd, 0xef, 0x8e, 0x62, 0x3d, 
    0x28, 0xff, 0x82, 0xbc, 0x96, 0x23, 0xde, 0xbd, 0x62, 0x49, 0xcd, 0x3a, 
    0x5b, 0xa0, 0x35, 0x3e, 0x1d, 0xb7, 0xed, 0x3d, 0x59, 0xef, 0x0a, 0xbe, 
    0x23, 0x93, 0x40, 0x3e, 0x65, 0xd1, 0xbd, 0x3d, 0xf3, 0xe6, 0xbb, 0xbd, 
    0xf2, 0xba, 0xc8, 0x3b, 0x68, 0x56, 0x77, 0x3e, 0xf3, 0x07, 0xa1, 0xbd, 
    0xc7, 0xb0, 0xbe, 0xbd, 0x01, 0xc8, 0x29, 0x3e, 0xa8, 0xe7, 0x9e, 0x3d, 
    0x7b, 0xab, 0x82, 0x3b, 0xbc, 0x58, 0x01, 0x3e, 0xd0, 0xff, 0x85, 0x3e, 
    0xd4, 0xb8, 0x94, 0x3c, 0x1f, 0xb8, 0x87, 0xbc, 0x9d, 0xa1, 0xab, 0x3d, 
    0xde, 0xbd, 0x78, 0x3d, 0xf0, 0xec, 0xf8, 0x3d, 0x59, 0xde, 0xf8, 0x3c, 
    0xdf, 0x10, 0xdb, 0x3d, 0x68, 0xcc, 0xcb, 0xbc, 0xce, 0xf6, 0xff, 0xff, 
    0x04, 0x00, 0x00, 0x00, 0x00, 0x08, 0x00, 0x00, 0x90, 0xfc, 0xac, 0xbe, 
    0xd2, 0xa8, 0x2e, 0x3e, 0xc8, 0x63, 0xf5, 0xbd, 0xb1, 0xd5, 0xa4, 0xbb, 
    0xef, 0xaa, 0xdd, 0x3d, 0x5c, 0x56, 0x88, 0xbe, 0x1e, 0x22, 0x84, 0x3e, 
    0x7c, 0xa4, 0xc5, 0xbe, 0xd1, 0x97, 0xd6, 0x3d, 0xfc, 0xb6, 0xc3, 0x3d, 
    0xad, 0x97, 0x02, 0xbf, 0x6c, 0xab, 0x2f, 0xbe, 0x27, 0x3e, 0x8a, 0x3e, 
    0x83, 0x19, 0xaa, 0xbd, 0x77, 0xd1, 0x80, 0xbd, 0xe0, 0x7e, 0xbb, 0x3e, 
    0x6c, 0x79, 0x39, 0x3e, 0x8d, 0x4d, 0xb4, 0x3d, 0x77, 0x2e, 0xfd, 0x3c, 
    0x0e, 0x28, 0xa8, 0xbd, 0x4d, 0x0e, 0x68, 0x3d, 0x57, 0x3c, 0x8a, 0xbe, 
    0x8d, 0xd6, 0x39, 0x3e, 0x5f, 0x63, 0x8f, 0x3e, 0xe5, 0x48, 0xc5, 0xbe, 
    0x19, 0xb8, 0xf2, 0x3e, 0x51, 0x17, 0xd4, 0xbd, 0x99, 0xb6, 0x8b, 0xbb, 
    0xa0, 0x6b, 0xd1, 0x3d, 0xcd, 0x45, 0xf2, 0xbd, 0x69, 0x82, 0xf1, 0x3d, 
    0x1f, 0x75, 0x93, 0x3e, 0xe9, 0x17, 0x2e, 0x3e, 0x48, 0x9b, 0x50, 0xbd, 
    0xae, 0x42, 0x02, 0x3e, 0x9c, 0xea, 0x17, 0xbe, 0xe6, 0x70, 0x27, 0xbe, 
    0x03, 0x23, 0xb4, 0xbd, 0x12, 0x72, 0xa5, 0x3e, 0x22, 0x85, 0xd1, 0xbe, 
    0x05, 0x22, 0x84, 0xbe, 0x61, 0x11, 0x4b, 0x3e, 0xfb, 0x20, 0x3d, 0xbe, 
    0xab, 0x74, 0x88, 0x3d, 0x81, 0x5f, 0x89, 0xbd, 0x44, 0x74, 0x5f, 0xbe, 
    0xb4, 0x54, 0xf9, 0xbe, 0x7f, 0xea, 0xe4, 0xbe, 0xd2, 0xf3, 0xe6, 0xbe, 
    0x3a, 0x21, 0xa0, 0xbe, 0x04, 0x3e, 0x13, 0x3e, 0x98, 0xa2, 0x71, 0x3d, 
    0x8c, 0x55, 0xcf, 0xbe, 0x6b, 0x84, 0x1a, 0x3d, 0xb9, 0x10, 0xc4, 0xbe, 
    0x29, 0x65, 0xa0, 0xbe, 0x3e, 0x20, 0x81, 0xbe, 0x33, 0xeb, 0xbf, 0xbe, 
    0x9b, 0x26, 0x21, 0x3e, 0x3c, 0xf2, 0x24, 0x3e, 0x34, 0xec, 0x3f, 0xbe, 
    0x07, 0xbc, 0x38, 0x3c, 0xcf, 0x76, 0xce, 0xbe, 0x63, 0x50, 0x3c, 0x3d, 
    0x14, 0xe6, 0x86, 0x3e, 0x62, 0x6f, 0x18, 0xbe, 0xc7, 0x78, 0x2f, 0xbe, 
    0x48, 0xad, 0xa3, 0xbe, 0x8a, 0x4c, 0xa0, 0xbc, 0x46, 0xad, 0x13, 0xbd, 
    0x9e, 0xfd, 0x82, 0x3e, 0xeb, 0x65, 0x1d, 0xbe, 0x94, 0x93, 0xa3, 0xbe, 
    0x6b, 0xd1, 0xaa, 0x3e, 0xc3, 0xff, 0x99, 0xbe, 0x52, 0x6b, 0xa0, 0xbe, 
    0xf5, 0x2a, 0xf2, 0xbc, 0x09, 0x44, 0x18, 0x3f, 0x59, 0x40, 0xe5, 0xbe, 
    0x3f, 0x68, 0x74, 0x3e, 0x8f, 0x7d, 0x14, 0x3f, 0x25, 0x31, 0x8a, 0x3e, 
    0x69, 0x17, 0x58, 0x3e, 0x73, 0x2b, 0x3b, 0xbd, 0x6f, 0xca, 0xf5, 0xbd, 
    0xac, 0x6b, 0xb7, 0xbd, 0xf9, 0xf7, 0x5e, 0xbd, 0x76, 0x3d, 0x81, 0xbe, 
    0x03, 0xa3, 0x1f, 0x3e, 0x92, 0xd4, 0x91, 0x3e, 0x29, 0x01, 0xba, 0xbd, 
    0xb8, 0x90, 0x9d, 0xbe, 0xc8, 0xa6, 0xbb, 0xbe, 0x9b, 0x00, 0x01, 0x3f, 
    0xd4, 0xe2, 0x8b, 0xbe, 0xad, 0x00, 0xff, 0x3d, 0x07, 0x14, 0xae, 0x3e, 
    0x3b, 0x05, 0xfd, 0x3d, 0x49, 0x46, 0x31, 0xbe, 0x8e, 0x2f, 0xc8, 0x3e, 
    0x98, 0x8e, 0xcb, 0xbe, 0x52, 0x7a, 0x64, 0xbe, 0x48, 0xf7, 0xfa, 0x3c, 
    0x85, 0x3d, 0xd3, 0xbe, 0xf6, 0x2b, 0x71, 0xbe, 0x88, 0x2d, 0xbd, 0x3e, 
    0xf7, 0x95, 0xfd, 0xbe, 0x01, 0xb3, 0xf9, 0xbe, 0x79, 0x6f, 0xda, 0x3d, 
    0xbd, 0xf6, 0xa4, 0xbd, 0x30, 0x82, 0x0c, 0xba, 0x35, 0xe1, 0x8e, 0xbe, 
    0x4c, 0xa7, 0x92, 0x3e, 0x35, 0x16, 0xb8, 0xbe, 0x49, 0x68, 0x92, 0xbc, 
    0xb9, 0xff, 0x64, 0x3d, 0x24, 0x86, 0x0b, 0x3f, 0xbd, 0x91, 0xab, 0xbe, 
    0x2d, 0x5b, 0xfa, 0x3c, 0x4b, 0x2f, 0xca, 0x3d, 0xb0, 0x4b, 0xf7, 0xbe, 
    0xfc, 0x98, 0xb5, 0x3e, 0x24, 0x3a, 0x98, 0x3e, 0xff, 0xa2, 0xac, 0x3e, 
    0x24, 0x3c, 0x12, 0x3e, 0x4e, 0x65, 0x77, 0x3e, 0xe1, 0xb2, 0xb8, 0x3d, 
    0xec, 0x6c, 0x0b, 0x3f, 0xfe, 0x19, 0x4c, 0xbe, 0x23, 0xd4, 0x1e, 0x3e, 
    0xcc, 0x3f, 0xcf, 0xbd, 0xe6, 0xbd, 0x24, 0x3d, 0xd3, 0x0e, 0xa6, 0xbe, 
    0x13, 0xc5, 0xa9, 0x3d, 0xc0, 0x86, 0x8b, 0x3e, 0x95, 0x18, 0xb7, 0xbd, 
    0xd7, 0xe2, 0x5b, 0xbd, 0xb2, 0x81, 0x7f, 0x3e, 0xfa, 0x0b, 0x0c, 0xbf, 
    0x21, 0x5e, 0xf3, 0xbe, 0x9f, 0xa7, 0x7e, 0x3e, 0x4c, 0xce, 0xd8, 0x3e, 
    0xe1, 0xc9, 0xc7, 0xbe, 0x9e, 0x11, 0x59, 0xbd, 0x9a, 0x58, 0x52, 0xbd, 
    0x41, 0x01, 0xaf, 0xbe, 0xb5, 0x13, 0x0a, 0xbe, 0x69, 0xd0, 0xff, 0xbe, 
    0x36, 0xbf, 0x2f, 0x3d, 0xdf, 0x78, 0x14, 0xbe, 0x9f, 0x7d, 0x7b, 0x3e, 
    0x0e, 0x15, 0x70, 0x3e, 0xa5, 0x9e, 0x4e, 0x3e, 0x01, 0x25, 0x9c, 0x3e, 
    0xe9, 0xb6, 0x56, 0x3e, 0xad, 0x38, 0xf2, 0xbb, 0x9a, 0x3a, 0x1c, 0xbe, 
    0x81, 0xc8, 0x40, 0xbe, 0x00, 0x71, 0xd2, 0xbe, 0xac, 0xb8, 0xd1, 0x3e, 
    0xfe, 0x8a, 0x79, 0x3e, 0xef, 0x5a, 0x13, 0xbe, 0xc2, 0x76, 0x1d, 0x3f, 
    0x9b, 0xe0, 0xe7, 0x3e, 0x84, 0xe6, 0xca, 0x3c, 0xd9, 0x65, 0xf3, 0xbd, 
    0x27, 0x6d, 0x7b, 0xbe, 0x4a, 0x82, 0x03, 0x3d, 0xd6, 0x84, 0x7d, 0x3e, 
    0x80, 0x0c, 0xf0, 0x3c, 0xca, 0xf4, 0x2e, 0x3f, 0x7a, 0x5c, 0x8c, 0xbd, 
    0xa8, 0xf7, 0xb8, 0xbe, 0x84, 0xd7, 0xe4, 0x3c, 0xe3, 0x2d, 0x05, 0x3f, 
    0x36, 0x90, 0x0a, 0xbe, 0xe1, 0x90, 0x14, 0xbf, 0x3d, 0x6b, 0x97, 0xbd, 
    0x1d, 0x33, 0xbb, 0x3c, 0xfd, 0xf9, 0x11, 0x3e, 0x6e, 0xc9, 0xc1, 0xbe, 
    0xb9, 0x58, 0xeb, 0x3d, 0x9b, 0x05, 0x1c, 0xbe, 0xe0, 0xc5, 0x14, 0x3e, 
    0x85, 0x4a, 0x91, 0x3e, 0x74, 0xdf, 0x87, 0xbe, 0x92, 0xdc, 0x37, 0x3e, 
    0xaa, 0x75, 0x9a, 0x3d, 0x15, 0xe9, 0x73, 0x3d, 0xce, 0x07, 0x2e, 0xbe, 
    0xe1, 0x49, 0x65, 0x3e, 0x39, 0x43, 0x35, 0xbe, 0xd4, 0x07, 0xb8, 0xbe, 
    0x32, 0x3f, 0xfb, 0x3d, 0xc3, 0x20, 0xb9, 0xbe, 0xda, 0x53, 0x06, 0xbf, 
    0x80, 0x07, 0x43, 0x3d, 0xf8, 0xac, 0x0a, 0x3e, 0x8b, 0x92, 0x4d, 0xbe, 
    0xb6, 0x4a, 0x0b, 0x3e, 0x6d, 0xbd, 0x80, 0xbe, 0xf3, 0xe3, 0x90, 0x3e, 
    0x68, 0xff, 0xfb, 0xbe, 0xc2, 0x2a, 0xdb, 0xbe, 0x61, 0xf1, 0xbf, 0x3e, 
    0x47, 0xae, 0x34, 0x3e, 0xf2, 0xe9, 0x00, 0xbe, 0x0b, 0xaa, 0x55, 0x3e, 
    0x72, 0xeb, 0xc6, 0xbe, 0x41, 0xd5, 0xfa, 0x3c, 0x81, 0xc4, 0xc2, 0xbe, 
    0x36, 0x66, 0x89, 0xbe, 0x49, 0x46, 0x8f, 0x3e, 0x06, 0xd9, 0x02, 0xbd, 
    0xe3, 0x9e, 0xe8, 0x3e, 0xe3, 0x6a, 0xb0, 0x3e, 0xab, 0x31, 0x1f, 0xbe, 
    0x7f, 0x8b, 0x89, 0x3e, 0x80, 0xc1, 0x6d, 0xbe, 0x67, 0xc6, 0x37, 0x3e, 
    0xd3, 0x03, 0xda, 0xbc, 0x6a, 0x34, 0xdd, 0x3e, 0xd0, 0x4b, 0x4e, 0xbe, 
    0x45, 0x0c, 0x33, 0x3f, 0xe3, 0x0c, 0xb5, 0x3e, 0x38, 0x13, 0x56, 0x3e, 
    0x09, 0x83, 0x1b, 0xbe, 0x25, 0xe8, 0xbb, 0x3e, 0xf2, 0xde, 0xf3, 0xbe, 
    0xaa, 0x83, 0x04, 0xbe, 0x79, 0x9f, 0x01, 0x3f, 0x75, 0x74, 0x8d, 0xbe, 
    0x07, 0x44, 0x40, 0xbb, 0x4d, 0xef, 0xa8, 0xbe, 0xdf, 0xc9, 0xc0, 0x3d, 
    0xfc, 0x1a, 0x39, 0xbc, 0xc7, 0xd6, 0xb7, 0x3e, 0x6e, 0xa8, 0xbf, 0x3e, 
    0x60, 0x25, 0x44, 0xbe, 0xef, 0x28, 0xf6, 0xbc, 0x96, 0x6b, 0x0b, 0x3e, 
    0x3e, 0xa0, 0x0c, 0xbf, 0x5e, 0x24, 0x86, 0xbe, 0x5b, 0xb6, 0x9b, 0xbe, 
    0xee, 0x85, 0xba, 0x3e, 0x87, 0xae, 0x37, 0x3d, 0x9f, 0x42, 0x94, 0xbe, 
    0x79, 0x27, 0x6e, 0x3d, 0x74, 0xd7, 0x0e, 0xbe, 0x0d, 0x5c, 0x16, 0x3e, 
    0x19, 0x46, 0xce, 0xbd, 0xf6, 0xf0, 0x89, 0x3e, 0x08, 0xa4, 0x9c, 0x3e, 
    0x03, 0x60, 0x8d, 0xbe, 0x9d, 0xf9, 0x71, 0x3e, 0x82, 0xce, 0x29, 0x3f, 
    0xd3, 0x9a, 0x71, 0x3e, 0x43, 0x6e, 0xe9, 0x3d, 0x70, 0x97, 0x8a, 0xbe, 
    0xc0, 0x3c, 0x2a, 0x3e, 0xf9, 0xdf, 0xf6, 0xbe, 0x1d, 0x07, 0xa1, 0xbd, 
    0xc9, 0xf9, 0xb9, 0x3e, 0xa7, 0x54, 0x68, 0x3b, 0x06, 0x98, 0xa3, 0x3d, 
    0x4f, 0x74, 0x87, 0x3e, 0x01, 0xe2, 0x8f, 0xbe, 0x20, 0x58, 0x85, 0xbe, 
    0x9a, 0x29, 0xa5, 0x3e, 0x0d, 0x92, 0x15, 0x3e, 0xaf, 0xec, 0x63, 0xbe, 
    0x30, 0xe1, 0xd6, 0x3b, 0x50, 0x05, 0xae, 0x3e, 0x0c, 0xea, 0x86, 0xbe, 
    0xfe, 0x77, 0x59, 0x3e, 0xac, 0x66, 0xc9, 0xbd, 0xc2, 0x21, 0x1f, 0x3e, 
    0x47, 0x57, 0x2d, 0xbf, 0x7f, 0x14, 0xa6, 0x3e, 0x44, 0x74, 0x61, 0xbd, 
    0xcd, 0x92, 0x2f, 0xbd, 0xaf, 0x07, 0x46, 0xbe, 0x89, 0xcf, 0x91, 0x3d, 
    0x33, 0x8b, 0x29, 0xbd, 0x68, 0x9b, 0x51, 0xbd, 0x1c, 0x08, 0x60, 0x3e, 
    0xec, 0xe9, 0xe7, 0xbd, 0x4c, 0x64, 0xfd, 0x3d, 0x9c, 0x53, 0xde, 0xbe, 
    0x5f, 0x81, 0xf0, 0xbe, 0x45, 0x46, 0x6c, 0x3e, 0x50, 0xf2, 0x0d, 0xbf, 
    0xe8, 0xf8, 0x02, 0x3d, 0x24, 0xfa, 0x63, 0xbd, 0xc6, 0x1a, 0xdd, 0x3e, 
    0xdc, 0x92, 0x72, 0x3e, 0xaa, 0x3e, 0xd1, 0xbe, 0x6b, 0x6d, 0x1b, 0xbe, 
    0xdd, 0xe5, 0xa5, 0xbe, 0xaf, 0x76, 0x9b, 0x3e, 0x3a, 0xd0, 0x9b, 0xbe, 
    0x6b, 0xef, 0xae, 0xbe, 0xfd, 0x34, 0x9e, 0xbd, 0x82, 0xa6, 0x60, 0x3e, 
    0xad, 0xf9, 0xae, 0xbd, 0x9a, 0x2e, 0x17, 0xbd, 0x39, 0x0b, 0xa8, 0xbe, 
    0x37, 0x6f, 0x32, 0x3e, 0x72, 0xe4, 0xf9, 0x3d, 0xb2, 0x5c, 0xa1, 0xbe, 
    0x07, 0x65, 0x5f, 0xbe, 0xe5, 0x41, 0xc8, 0xbd, 0x52, 0x12, 0x10, 0x3e, 
    0x4b, 0x90, 0x78, 0xbe, 0xf8, 0x67, 0xed, 0xbd, 0x0c, 0x0f, 0xe6, 0xbd, 
    0x0a, 0xf4, 0xab, 0xbe, 0xf1, 0xa6, 0x70, 0x3e, 0x56, 0x7a, 0x0a, 0x3d, 
    0x08, 0x85, 0x7d, 0xbe, 0x33, 0xaa, 0xc1, 0xbe, 0x27, 0x03, 0x74, 0xbe, 
    0xcb, 0x0e, 0xee, 0xbd, 0x96, 0x7e, 0xaa, 0xbe, 0x18, 0xb1, 0xd8, 0xbc, 
    0x0f, 0x1e, 0x93, 0x3e, 0xde, 0xbd, 0xfc, 0x3d, 0xed, 0x46, 0x9a, 0x3d, 
    0xb6, 0xea, 0x9f, 0xbe, 0x4f, 0x07, 0x17, 0x3e, 0x69, 0x12, 0xfb, 0xbe, 
    0xec, 0x82, 0x61, 0x3d, 0xc4, 0x61, 0x3a, 0x3b, 0xe2, 0xbf, 0xd9, 0x3e, 
    0x4f, 0x59, 0x27, 0xbe, 0x8e, 0x34, 0x0c, 0x3e, 0xd7, 0x7a, 0xce, 0x3e, 
    0x7f, 0xf0, 0x31, 0xbe, 0xee, 0x14, 0x3d, 0x3e, 0x45, 0xa5, 0x01, 0xbf, 
    0xf3, 0x62, 0xe2, 0x3e, 0x81, 0x0b, 0x13, 0xbe, 0x3d, 0x1c, 0x2b, 0x3e, 
    0xba, 0x5d, 0x23, 0x3e, 0x32, 0xb2, 0xc0, 0x3d, 0x67, 0x20, 0x95, 0x3e, 
    0x95, 0x09, 0x84, 0x3e, 0xb0, 0x94, 0x1a, 0x3e, 0x9b, 0xde, 0x98, 0x3e, 
    0xe0, 0x33, 0x74, 0x3e, 0xc1, 0x53, 0xa0, 0xbe, 0xbe, 0x23, 0x61, 0x3e, 
    0xe5, 0x5e, 0x7d, 0xbe, 0x99, 0xab, 0x87, 0xbe, 0x53, 0xfb, 0x0a, 0xbd, 
    0x14, 0x19, 0xa8, 0x3d, 0x29, 0x17, 0x83, 0xbe, 0x32, 0x47, 0x62, 0xbe, 
    0x9b, 0xfc, 0x79, 0xbe, 0x8a, 0x15, 0x24, 0x3d, 0x7b, 0xdd, 0xb9, 0x3e, 
    0x67, 0x0b, 0x45, 0xbe, 0xd1, 0x5d, 0xf8, 0xbc, 0x2c, 0xb7, 0xc8, 0x3e, 
    0xe7, 0xad, 0x16, 0xbf, 0x8e, 0x5d, 0x28, 0xbe, 0x39, 0x81, 0x03, 0x3d, 
    0xdc, 0x45, 0xd5, 0xbd, 0x54, 0x54, 0x4e, 0xbe, 0x75, 0xec, 0x23, 0x3e, 
    0xc9, 0xc7, 0x0a, 0x3f, 0x85, 0xc5, 0xdf, 0x3d, 0x5f, 0xd3, 0x5b, 0x3b, 
    0x28, 0x07, 0x69, 0x3d, 0x9e, 0x08, 0x2b, 0xbe, 0x39, 0xf3, 0xba, 0x3d, 
    0x3b, 0x17, 0xd5, 0x3e, 0x69, 0x35, 0xda, 0xbe, 0x3c, 0xef, 0xb8, 0xbe, 
    0xc7, 0xfe, 0xa2, 0x3e, 0x4f, 0x1d, 0x97, 0xbe, 0x55, 0xa7, 0xea, 0xbd, 
    0x50, 0x34, 0xf0, 0x3e, 0x13, 0x13, 0xb3, 0xbd, 0x73, 0x54, 0xb3, 0x3e, 
    0x9f, 0x1c, 0x8b, 0xbe, 0x51, 0x15, 0xa5, 0x3e, 0x5b, 0x1a, 0xe6, 0x3e, 
    0xec, 0xa5, 0x0f, 0xbe, 0xfe, 0xbf, 0xf3, 0xbe, 0x63, 0x10, 0xc1, 0xbe, 
    0x47, 0xd5, 0xc2, 0x3e, 0xf7, 0xbd, 0xe8, 0x3d, 0x98, 0xd6, 0x1d, 0x3d, 
    0xb3, 0xa0, 0x2c, 0x3f, 0x44, 0xe7, 0xf9, 0x3e, 0xe1, 0x7e, 0xfa, 0xbe, 
    0xc1, 0x6b, 0xdc, 0xbc, 0xed, 0xe6, 0x8d, 0x3e, 0xd0, 0x47, 0x21, 0x3d, 
    0x91, 0xb3, 0xd0, 0xbd, 0x1e, 0x8d, 0x32, 0x3e, 0x47, 0x01, 0xfa, 0x3e, 
    0xda, 0x31, 0xcc, 0x3e, 0xf6, 0x5d, 0xf8, 0xbe, 0xc2, 0x12, 0xd2, 0x3e, 
    0xa5, 0x0f, 0xa3, 0x3e, 0x40, 0xbd, 0x57, 0xbe, 0x54, 0x06, 0x27, 0x3e, 
    0x0b, 0xef, 0x97, 0xbc, 0xec, 0x80, 0xf8, 0xbe, 0xd8, 0x07, 0x08, 0x3e, 
    0x86, 0x61, 0x14, 0xbc, 0x1d, 0xac, 0x14, 0xbe, 0x57, 0x08, 0x0e, 0x3f, 
    0x67, 0xaf, 0x26, 0xbe, 0x3a, 0x61, 0x79, 0xbd, 0xfd, 0x8e, 0x33, 0xbe, 
    0x76, 0xa7, 0x84, 0x3e, 0x90, 0x9b, 0xa3, 0x3e, 0x82, 0xb5, 0xba, 0xbd, 
    0x4c, 0x3f, 0x30, 0x3c, 0x2f, 0x25, 0x95, 0xbe, 0x26, 0x83, 0x99, 0x3d, 
    0xd5, 0xc0, 0x58, 0x3d, 0x78, 0xae, 0xda, 0x3b, 0x11, 0x93, 0x0c, 0x3f, 
    0xcb, 0x38, 0x05, 0x3f, 0x44, 0x6d, 0x78, 0xbe, 0x9d, 0x19, 0x1a, 0xbe, 
    0xb6, 0x61, 0x05, 0xbd, 0xa6, 0xea, 0xfb, 0x3d, 0xd2, 0x98, 0x98, 0xbe, 
    0x04, 0x97, 0x09, 0x3e, 0xc4, 0x28, 0xe4, 0x3e, 0xf4, 0x82, 0x0a, 0x3f, 
    0xb9, 0x60, 0x13, 0xbf, 0x04, 0xfb, 0x9c, 0x3e, 0xe9, 0x6a, 0x9d, 0x3e, 
    0xad, 0x5a, 0x96, 0xbe, 0x1e, 0x6f, 0x85, 0x3e, 0x4c, 0x40, 0x17, 0xbe, 
    0x82, 0xf0, 0x26, 0x3e, 0x73, 0x78, 0x8d, 0x3c, 0x08, 0x46, 0x2f, 0x3e, 
    0xa4, 0x50, 0x33, 0x3e, 0x5e, 0xd8, 0xf9, 0x3e, 0xd2, 0xf4, 0x09, 0xbf, 
    0xc7, 0x29, 0xf6, 0xbe, 0x9f, 0xeb, 0xc4, 0xbc, 0x4c, 0x17, 0x88, 0x3e, 
    0x11, 0xd6, 0xed, 0x3d, 0x2d, 0xfc, 0xb4, 0x3c, 0x0a, 0x42, 0x9e, 0x3e, 
    0x93, 0xbc, 0x01, 0xbf, 0xa2, 0x7d, 0x9a, 0x3e, 0x0c, 0x4d, 0x4e, 0x3e, 
    0x83, 0x3d, 0xda, 0xbe, 0xfe, 0x93, 0xbb, 0x3e, 0x22, 0xcd, 0x1a, 0x3c, 
    0xdb, 0xca, 0x0d, 0xbf, 0x90, 0xf4, 0xa3, 0xbe, 0xb1, 0x0c, 0x24, 0x3e, 
    0x0a, 0xc3, 0xc2, 0x3d, 0x4b, 0x3d, 0x0b, 0x3e, 0xa1, 0x30, 0x58, 0x3e, 
    0x93, 0x09, 0x9e, 0x3d, 0x1a, 0x97, 0x47, 0x3f, 0x82, 0xfc, 0xd4, 0xbe, 
    0xba, 0xc2, 0xfa, 0x3e, 0xc3, 0x16, 0xc8, 0x3b, 0x10, 0xd6, 0x31, 0x3e, 
    0xa5, 0x1a, 0xb5, 0x3e, 0x23, 0x69, 0x9e, 0xbe, 0x69, 0x8f, 0x13, 0x3e, 
    0x8f, 0xf0, 0xb4, 0xbd, 0x27, 0xc5, 0x34, 0xbd, 0x24, 0x5b, 0xc6, 0xbe, 
    0xaf, 0xe4, 0xdc, 0x3e, 0x55, 0x83, 0x01, 0xbe, 0xac, 0x3c, 0x9c, 0x3e, 
    0x5f, 0xbf, 0x90, 0x3d, 0xa3, 0xa5, 0x7a, 0xbe, 0xe9, 0x63, 0x12, 0x3e, 
    0x91, 0x2b, 0xa7, 0x3b, 0xe0, 0xe4, 0x29, 0xbd, 0x3e, 0xf2, 0xde, 0xbe, 
    0x85, 0x2b, 0xdc, 0xbe, 0x74, 0x29, 0x00, 0x3f, 0x17, 0xd3, 0x25, 0xbe, 
    0x1f, 0x79, 0x30, 0x3f, 0x60, 0x36, 0x8f, 0x3d, 0xed, 0x5f, 0xe5, 0xbe, 
    0xc8, 0x1c, 0x0f, 0xbc, 0x02, 0xac, 0xd2, 0xbe, 0xde, 0xc9, 0xf7, 0x3d, 
    0xaa, 0xd3, 0xe2, 0x3d, 0x85, 0x5f, 0x47, 0x3e, 0xd5, 0x62, 0xc1, 0xbe, 
    0x9b, 0x00, 0x46, 0x3f, 0xe7, 0x2d, 0x12, 0xbf, 0xc5, 0x5d, 0x91, 0x3e, 
    0x3c, 0x52, 0xae, 0x3e, 0x52, 0xeb, 0xa9, 0x3e, 0x02, 0x57, 0xbd, 0x3e, 
    0xcf, 0xac, 0xa9, 0xbe, 0xd4, 0xde, 0x31, 0xbe, 0x3c, 0x84, 0x87, 0x3e, 
    0x5a, 0x77, 0xa8, 0xbe, 0xa9, 0xa0, 0x6f, 0xbd, 0xf9, 0xf4, 0xa0, 0x3e, 
    0x94, 0xfc, 0x25, 0xbf, 0xda, 0xfe, 0xff, 0xff, 0x04, 0x00, 0x00, 0x00, 
    0x80, 0x00, 0x00, 0x00, 0x58, 0x35, 0xc7, 0xbe, 0x79, 0x3e, 0xbd, 0x3c, 
    0xfb, 0x9c, 0x16, 0xbe, 0x48, 0x12, 0x92, 0xbe, 0x4e, 0x73, 0x0b, 0x3d, 
    0x8b, 0xd7, 0x1b, 0x3d, 0xa9, 0x2e, 0x95, 0xbe, 0xc3, 0x2d, 0x60, 0xbe, 
    0x85, 0x3b, 0x8f, 0xbe, 0x4d, 0x78, 0xfc, 0xbe, 0xb1, 0x62, 0xf6, 0xbe, 
    0x74, 0xc6, 0x16, 0xbe, 0x2d, 0x0a, 0x6e, 0x3d, 0x8f, 0x3c, 0x90, 0xbd, 
    0x4b, 0x80, 0x25, 0x3f, 0x06, 0x08, 0x0b, 0x3d, 0x42, 0xe4, 0x81, 0x3e, 
    0x5c, 0xf9, 0x46, 0xbd, 0x7a, 0xc8, 0x16, 0x3f, 0xc5, 0x37, 0x9e, 0x3e, 
    0xa7, 0xac, 0xc4, 0x3e, 0x9b, 0x85, 0x18, 0xbf, 0xb3, 0xf7, 0x88, 0x3e, 
    0x59, 0x56, 0x3c, 0x3f, 0xc8, 0x95, 0x73, 0xbd, 0xbf, 0x86, 0x03, 0x3e, 
    0xb4, 0x47, 0xcc, 0x3e, 0xd2, 0x0d, 0x17, 0xbf, 0x44, 0x74, 0x3a, 0xbf, 
    0x3d, 0x1e, 0x1c, 0xbf, 0xcf, 0x9d, 0x95, 0xbe, 0x08, 0x4f, 0x2d, 0xbf, 
    0x68, 0xf8, 0xff, 0xff, 0x6c, 0xf8, 0xff, 0xff, 0x0f, 0x00, 0x00, 0x00, 
    0x4d, 0x4c, 0x49, 0x52, 0x20, 0x43, 0x6f, 0x6e, 0x76, 0x65, 0x72, 0x74, 
    0x65, 0x64, 0x2e, 0x00, 0x01, 0x00, 0x00, 0x00, 0x14, 0x00, 0x00, 0x00, 
    0x00, 0x00, 0x0e, 0x00, 0x18, 0x00, 0x14, 0x00, 0x10, 0x00, 0x0c, 0x00, 
    0x08, 0x00, 0x04, 0x00, 0x0e, 0x00, 0x00, 0x00, 0x14, 0x00, 0x00, 0x00, 
    0x1c, 0x00, 0x00, 0x00, 0x78, 0x01, 0x00, 0x00, 0x7c, 0x01, 0x00, 0x00, 
    0x80, 0x01, 0x00, 0x00, 0x04, 0x00, 0x00, 0x00, 0x6d, 0x61, 0x69, 0x6e, 
    0x00, 0x00, 0x00, 0x00, 0x05, 0x00, 0x00, 0x00, 0x1c, 0x01, 0x00, 0x00, 
    0xd4, 0x00, 0x00, 0x00, 0x94, 0x00, 0x00, 0x00, 0x50, 0x00, 0x00, 0x00, 
    0x14, 0x00, 0x00, 0x00, 0x00, 0x00, 0x0e, 0x00, 0x1a, 0x00, 0x14, 0x00, 
    0x10, 0x00, 0x0c, 0x00, 0x0b, 0x00, 0x04, 0x00, 0x0e, 0x00, 0x00, 0x00, 
    0x1c, 0x00, 0x00, 0x00, 0x00, 0x00, 0x00, 0x09, 0x1c, 0x00, 0x00, 0x00, 
    0x20, 0x00, 0x00, 0x00, 0x01, 0x00, 0x00, 0x00, 0x00, 0x00, 0x06, 0x00, 
    0x08, 0x00, 0x04, 0x00, 0x06, 0x00, 0x00, 0x00, 0x00, 0x00, 0x80, 0x3f, 
    0x01, 0x00, 0x00, 0x00, 0x0d, 0x00, 0x00, 0x00, 0x01, 0x00, 0x00, 0x00, 
    0x0c, 0x00, 0x00, 0x00, 0x4e, 0xff, 0xff, 0xff, 0x10, 0x00, 0x00, 0x00, 
    0x00, 0x00, 0x00, 0x08, 0x0c, 0x00, 0x00, 0x00, 0x10, 0x00, 0x00, 0x00, 
    0x34, 0xf9, 0xff, 0xff, 0x01, 0x00, 0x00, 0x00, 0x0c, 0x00, 0x00, 0x00, 
    0x03, 0x00, 0x00, 0x00, 0x0b, 0x00, 0x00, 0x00, 0x01, 0x00, 0x00, 0x00, 
    0x05, 0x00, 0x00, 0x00, 0x00, 0x00, 0x0e, 0x00, 0x16, 0x00, 0x00, 0x00, 
    0x10, 0x00, 0x0c, 0x00, 0x0b, 0x00, 0x04, 0x00, 0x0e, 0x00, 0x00, 0x00, 
    0x18, 0x00, 0x00, 0x00, 0x00, 0x00, 0x00, 0x08, 0x18, 0x00, 0x00, 0x00, 
    0x1c, 0x00, 0x00, 0x00, 0x00, 0x00, 0x06, 0x00, 0x08, 0x00, 0x07, 0x00, 
    0x06, 0x00, 0x00, 0x00, 0x00, 0x00, 0x00, 0x01, 0x01, 0x00, 0x00, 0x00, 
    0x0b, 0x00, 0x00, 0x00, 0x03, 0x00, 0x00, 0x00, 0x0a, 0x00, 0x00, 0x00, 
    0x02, 0x00, 0x00, 0x00, 0x04, 0x00, 0x00, 0x00, 0xca, 0xff, 0xff, 0xff, 
    0x10, 0x00, 0x00, 0x00, 0x00, 0x00, 0x00, 0x08, 0x10, 0x00, 0x00, 0x00, 
    0x14, 0x00, 0x00, 0x00, 0xbc, 0xff, 0xff, 0xff, 0x00, 0x00, 0x01, 0x01, 
    0x01, 0x00, 0x00, 0x00, 0x0a, 0x00, 0x00, 0x00, 0x03, 0x00, 0x00, 0x00, 
    0x09, 0x00, 0x00, 0x00, 0x08, 0x00, 0x00, 0x00, 0x03, 0x00, 0x00, 0x00, 
    0x00, 0x00, 0x0e, 0x00, 0x14, 0x00, 0x00, 0x00, 0x10, 0x00, 0x0c, 0x00, 
    0x0b, 0x00, 0x04, 0x00, 0x0e, 0x00, 0x00, 0x00, 0x1c, 0x00, 0x00, 0x00, 
    0x00, 0x00, 0x00, 0x08, 0x1c, 0x00, 0x00, 0x00, 0x20, 0x00, 0x00, 0x00, 
    0x0c, 0x00, 0x08, 0x00, 0x07, 0x00, 0x00, 0x00, 0x00, 0x00, 0x06, 0x00, 
    0x0c, 0x00, 0x00, 0x00, 0x00, 0x00, 0x01, 0x01, 0x01, 0x00, 0x00, 0x00, 
    0x09, 0x00, 0x00, 0x00, 0x03, 0x00, 0x00, 0x00, 0x00, 0x00, 0x00, 0x00, 
    0x07, 0x00, 0x00, 0x00, 0x06, 0x00, 0x00, 0x00, 0x01, 0x00, 0x00, 0x00, 
    0x0d, 0x00, 0x00, 0x00, 0x01, 0x00, 0x00, 0x00, 0x00, 0x00, 0x00, 0x00, 
    0x0e, 0x00, 0x00, 0x00, 0xa4, 0x05, 0x00, 0x00, 0x40, 0x05, 0x00, 0x00, 
    0xdc, 0x04, 0x00, 0x00, 0x84, 0x04, 0x00, 0x00, 0x2c, 0x04, 0x00, 0x00, 
    0xd4, 0x03, 0x00, 0x00, 0x80, 0x03, 0x00, 0x00, 0x08, 0x03, 0x00, 0x00, 
    0x80, 0x02, 0x00, 0x00, 0xf8, 0x01, 0x00, 0x00, 0x68, 0x01, 0x00, 0x00, 
    0xd8, 0x00, 0x00, 0x00, 0x60, 0x00, 0x00, 0x00, 0x04, 0x00, 0x00, 0x00, 
    0xaa, 0xfa, 0xff, 0xff, 0x00, 0x00, 0x00, 0x01, 0x14, 0x00, 0x00, 0x00, 
    0x1c, 0x00, 0x00, 0x00, 0x1c, 0x00, 0x00, 0x00, 0x0e, 0x00, 0x00, 0x00, 
    0x34, 0x00, 0x00, 0x00, 0x02, 0x00, 0x00, 0x00, 0xff, 0xff, 0xff, 0xff, 
    0x02, 0x00, 0x00, 0x00, 0x94, 0xfa, 0xff, 0xff, 0x19, 0x00, 0x00, 0x00, 
    0x53, 0x74, 0x61, 0x74, 0x65, 0x66, 0x75, 0x6c, 0x50, 0x61, 0x72, 0x74, 
    0x69, 0x74, 0x69, 0x6f, 0x6e, 0x65, 0x64, 0x43, 0x61, 0x6c, 0x6c, 0x3a, 
    0x30, 0x00, 0x00, 0x00, 0x02, 0x00, 0x00, 0x00, 0x01, 0x00, 0x00, 0x00, 
    0x02, 0x00, 0x00, 0x00, 0x02, 0xfb, 0xff, 0xff, 0x00, 0x00, 0x00, 0x01, 
    0x14, 0x00, 0x00, 0x00, 0x1c, 0x00, 0x00, 0x00, 0x1c, 0x00, 0x00, 0x00, 
    0x0d, 0x00, 0x00, 0x00, 0x50, 0x00, 0x00, 0x00, 0x02, 0x00, 0x00, 0x00, 
    0xff, 0xff, 0xff, 0xff, 0x02, 0x00, 0x00, 0x00, 0xec, 0xfa, 0xff, 0xff, 
    0x34, 0x00, 0x00, 0x00, 0x73, 0x65, 0x71, 0x75, 0x65, 0x6e, 0x74, 0x69, 
    0x61, 0x6c, 0x2f, 0x64, 0x65, 0x6e, 0x73, 0x65, 0x5f, 0x33, 0x2f, 0x4d, 
    0x61, 0x74, 0x4d, 0x75, 0x6c, 0x3b, 0x73, 0x65, 0x71, 0x75, 0x65, 0x6e, 
    0x74, 0x69, 0x61, 0x6c, 0x2f, 0x64, 0x65, 0x6e, 0x73, 0x65, 0x5f, 0x33, 
    0x2f, 0x42, 0x69, 0x61, 0x73, 0x41, 0x64, 0x64, 0x00, 0x00, 0x00, 0x00, 
    0x02, 0x00, 0x00, 0x00, 0x01, 0x00, 0x00, 0x00, 0x02, 0x00, 0x00, 0x00, 
    0x76, 0xfb, 0xff, 0xff, 0x00, 0x00, 0x00, 0x01, 0x14, 0x00, 0x00, 0x00, 
    0x1c, 0x00, 0x00, 0x00, 0x1c, 0x00, 0x00, 0x00, 0x0c, 0x00, 0x00, 0x00, 
    0x68, 0x00, 0x00, 0x00, 0x02, 0x00, 0x00, 0x00, 0xff, 0xff, 0xff, 0xff, 
    0x10, 0x00, 0x00, 0x00, 0x60, 0xfb, 0xff, 0xff, 0x4c, 0x00, 0x00, 0x00, 
    0x73, 0x65, 0x71, 0x75, 0x65, 0x6e, 0x74, 0x69, 0x61, 0x6c, 0x2f, 0x64, 
    0x65, 0x6e, 0x73, 0x65, 0x5f, 0x32, 0x2f, 0x4d, 0x61, 0x74, 0x4d, 0x75, 
    0x6c, 0x3b, 0x73, 0x65, 0x71, 0x75, 0x65, 0x6e, 0x74, 0x69, 0x61, 0x6c, 
    0x2f, 0x64, 0x65, 0x6e, 0x73, 0x65, 0x5f, 0x32, 0x2f, 0x52, 0x65, 0x6c, 
    0x75, 0x3b, 0x73, 0x65, 0x71, 0x75, 0x65, 0x6e, 0x74, 0x69, 0x61, 0x6c, 
    0x2f, 0x64, 0x65, 0x6e, 0x73, 0x65, 0x5f, 0x32, 0x2f, 0x42, 0x69, 0x61, 
    0x73, 0x41, 0x64, 0x64, 0x00, 0x00, 0x00, 0x00, 0x02, 0x00, 0x00, 0x00, 
    0x01, 0x00, 0x00, 0x00, 0x10, 0x00, 0x00, 0x00, 0x02, 0xfc, 0xff, 0xff, 
    0x00, 0x00, 0x00, 0x01, 0x14, 0x00, 0x00, 0x00, 0x1c, 0x00, 0x00, 0x00, 
    0x1c, 0x00, 0x00, 0x00, 0x0b, 0x00, 0x00, 0x00, 0x68, 0x00, 0x00, 0x00, 
    0x02, 0x00, 0x00, 0x00, 0xff, 0xff, 0xff, 0xff, 0x20, 0x00, 0x00, 0x00, 
    0xec, 0xfb, 0xff, 0xff, 0x4c, 0x00, 0x00, 0x00, 0x73, 0x65, 0x71, 0x75, 
    0x65, 0x6e, 0x74, 0x69, 0x61, 0x6c, 0x2f, 0x64, 0x65, 0x6e, 0x73, 0x65, 
    0x5f, 0x31, 0x2f, 0x4d, 0x61, 0x74, 0x4d, 0x75, 0x6c, 0x3b, 0x73, 0x65, 
    0x71, 0x75, 0x65, 0x6e, 0x74, 0x69, 0x61, 0x6c, 0x2f, 0x64, 0x65, 0x6e, 
    0x73, 0x65, 0x5f, 0x31, 0x2f, 0x52, 0x65, 0x6c, 0x75, 0x3b, 0x73, 0x65, 
    0x71, 0x75, 0x65, 0x6e, 0x74, 0x69, 0x61, 0x6c, 0x2f, 0x64, 0x65, 0x6e, 
    0x73, 0x65, 0x5f, 0x31, 0x2f, 0x42, 0x69, 0x61, 0x73, 0x41, 0x64, 0x64, 
    0x00, 0x00, 0x00, 0x00, 0x02, 0x00, 0x00, 0x00, 0x01, 0x00, 0x00, 0x00, 
    0x20, 0x00, 0x00, 0x00, 0x8e, 0xfc, 0xff, 0xff, 0x00, 0x00, 0x00, 0x01, 
    0x14, 0x00, 0x00, 0x00, 0x1c, 0x00, 0x00, 0x00, 0x1c, 0x00, 0x00, 0x00, 
    0x0a, 0x00, 0x00, 0x00, 0x60, 0x00, 0x00, 0x00, 0x02, 0x00, 0x00, 0x00, 
    0xff, 0xff, 0xff, 0xff, 0x40, 0x00, 0x00, 0x00, 0x78, 0xfc, 0xff, 0xff, 
    0x46, 0x00, 0x00, 0x00, 0x73, 0x65, 0x71, 0x75, 0x65, 0x6e, 0x74, 0x69, 
    0x61, 0x6c, 0x2f, 0x64, 0x65, 0x6e, 0x73, 0x65, 0x2f, 0x4d, 0x61, 0x74, 
    0x4d, 0x75, 0x6c, 0x3b, 0x73, 0x65, 0x71, 0x75, 0x65, 0x6e, 0x74, 0x69, 
    0x61, 0x6c, 0x2f, 0x64, 0x65, 0x6e, 0x73, 0x65, 0x2f, 0x52, 0x65, 0x6c, 
    0x75, 0x3b, 0x73, 0x65, 0x71, 0x75, 0x65, 0x6e, 0x74, 0x69, 0x61, 0x6c, 
    0x2f, 0x64, 0x65, 0x6e, 0x73, 0x65, 0x2f, 0x42, 0x69, 0x61, 0x73, 0x41, 
    0x64, 0x64, 0x00, 0x00, 0x02, 0x00, 0x00, 0x00, 0x01, 0x00, 0x00, 0x00, 
    0x40, 0x00, 0x00, 0x00, 0x92, 0xff, 0xff, 0xff, 0x00, 0x00, 0x00, 0x01, 
    0x14, 0x00, 0x00, 0x00, 0x34, 0x00, 0x00, 0x00, 0x09, 0x00, 0x00, 0x00, 
    0x00, 0x00, 0x00, 0x09, 0x48, 0x00, 0x00, 0x00, 0x7c, 0xff, 0xff, 0xff, 
    0x08, 0x00, 0x00, 0x00, 0x14, 0x00, 0x00, 0x00, 0x01, 0x00, 0x00, 0x00, 
    0x00, 0x00, 0x00, 0x00, 0x00, 0x00, 0x00, 0x00, 0x00, 0x00, 0x00, 0x00, 
    0x01, 0x00, 0x00, 0x00, 0xdf, 0xc3, 0xcc, 0x3b, 0x19, 0x00, 0x00, 0x00, 
    0x73, 0x65, 0x71, 0x75, 0x65, 0x6e, 0x74, 0x69, 0x61, 0x6c, 0x2f, 0x64, 
    0x65, 0x6e, 0x73, 0x65, 0x5f, 0x31, 0x2f, 0x4d, 0x61, 0x74, 0x4d, 0x75, 
    0x6c, 0x00, 0x00, 0x00, 0x02, 0x00, 0x00, 0x00, 0x20, 0x00, 0x00, 0x00, 
    0x40, 0x00, 0x00, 0x00, 0x00, 0x00, 0x16, 0x00, 0x1c, 0x00, 0x18, 0x00, 
    0x17, 0x00, 0x10, 0x00, 0x0c, 0x00, 0x08, 0x00, 0x00, 0x00, 0x00, 0x00, 
    0x00, 0x00, 0x07, 0x00, 0x16, 0x00, 0x00, 0x00, 0x00, 0x00, 0x00, 0x01, 
    0x20, 0x00, 0x00, 0x00, 0x40, 0x00, 0x00, 0x00, 0x08, 0x00, 0x00, 0x00, 
    0x00, 0x00, 0x00, 0x09, 0x50, 0x00, 0x00, 0x00, 0x0c, 0x00, 0x0c, 0x00, 
    0x00, 0x00, 0x00, 0x00, 0x08, 0x00, 0x04, 0x00, 0x0c, 0x00, 0x00, 0x00, 
    0x08, 0x00, 0x00, 0x00, 0x14, 0x00, 0x00, 0x00, 0x01, 0x00, 0x00, 0x00, 
    0x00, 0x00, 0x00, 0x00, 0x00, 0x00, 0x00, 0x00, 0x00, 0x00, 0x00, 0x00, 
    0x01, 0x00, 0x00, 0x00, 0x2e, 0xec, 0x10, 0x3c, 0x17, 0x00, 0x00, 0x00, 
    0x73, 0x65, 0x71, 0x75, 0x65, 0x6e, 0x74, 0x69, 0x61, 0x6c, 0x2f, 0x64, 
    0x65, 0x6e, 0x73, 0x65, 0x2f, 0x4d, 0x61, 0x74, 0x4d, 0x75, 0x6c, 0x00, 
    0x02, 0x00, 0x00, 0x00, 0x40, 0x00, 0x00, 0x00, 0x26, 0x00, 0x00, 0x00, 
    0x6a, 0xfe, 0xff, 0xff, 0x00, 0x00, 0x00, 0x01, 0x10, 0x00, 0x00, 0x00, 
    0x10, 0x00, 0x00, 0x00, 0x07, 0x00, 0x00, 0x00, 0x34, 0x00, 0x00, 0x00, 
    0xe4, 0xfd, 0xff, 0xff, 0x27, 0x00, 0x00, 0x00, 0x73, 0x65, 0x71, 0x75, 
    0x65, 0x6e, 0x74, 0x69, 0x61, 0x6c, 0x2f, 0x64, 0x65, 0x6e, 0x73, 0x65, 
    0x2f, 0x42, 0x69, 0x61, 0x73, 0x41, 0x64, 0x64, 0x2f, 0x52, 0x65, 0x61, 
    0x64, 0x56, 0x61, 0x72, 0x69, 0x61, 0x62, 0x6c, 0x65, 0x4f, 0x70, 0x00, 
    0x01, 0x00, 0x00, 0x00, 0x40, 0x00, 0x00, 0x00, 0xba, 0xfe, 0xff, 0xff, 
    0x00, 0x00, 0x00, 0x01, 0x10, 0x00, 0x00, 0x00, 0x10, 0x00, 0x00, 0x00, 
    0x06, 0x00, 0x00, 0x00, 0x38, 0x00, 0x00, 0x00, 0x34, 0xfe, 0xff, 0xff, 
    0x29, 0x00, 0x00, 0x00, 0x73, 0x65, 0x71, 0x75, 0x65, 0x6e, 0x74, 0x69, 
    0x61, 0x6c, 0x2f, 0x64, 0x65, 0x6e, 0x73, 0x65, 0x5f, 0x33, 0x2f, 0x42, 
    0x69, 0x61, 0x73, 0x41, 0x64, 0x64, 0x2f, 0x52, 0x65, 0x61, 0x64, 0x56, 
    0x61, 0x72, 0x69, 0x61, 0x62, 0x6c, 0x65, 0x4f, 0x70, 0x00, 0x00, 0x00, 
    0x01, 0x00, 0x00, 0x00, 0x02, 0x00, 0x00, 0x00, 0x0e, 0xff, 0xff, 0xff, 
    0x00, 0x00, 0x00, 0x01, 0x10, 0x00, 0x00, 0x00, 0x10, 0x00, 0x00, 0x00, 
    0x05, 0x00, 0x00, 0x00, 0x38, 0x00, 0x00, 0x00, 0x88, 0xfe, 0xff, 0xff, 
    0x29, 0x00, 0x00, 0x00, 0x73, 0x65, 0x71, 0x75, 0x65, 0x6e, 0x74, 0x69, 
    0x61, 0x6c, 0x2f, 0x64, 0x65, 0x6e, 0x73, 0x65, 0x5f, 0x32, 0x2f, 0x42, 
    0x69, 0x61, 0x73, 0x41, 0x64, 0x64, 0x2f, 0x52, 0x65, 0x61, 0x64, 0x56, 
    0x61, 0x72, 0x69, 0x61, 0x62, 0x6c, 0x65, 0x4f, 0x70, 0x00, 0x00, 0x00, 
    0x01, 0x00, 0x00, 0x00, 0x10, 0x00, 0x00, 0x00, 0x62, 0xff, 0xff, 0xff, 
    0x00, 0x00, 0x00, 0x01, 0x10, 0x00, 0x00, 0x00, 0x10, 0x00, 0x00, 0x00, 
    0x04, 0x00, 0x00, 0x00, 0x38, 0x00, 0x00, 0x00, 0xdc, 0xfe, 0xff, 0xff, 
    0x29, 0x00, 0x00, 0x00, 0x73, 0x65, 0x71, 0x75, 0x65, 0x6e, 0x74, 0x69, 
    0x61, 0x6c, 0x2f, 0x64, 0x65, 0x6e, 0x73, 0x65, 0x5f, 0x31, 0x2f, 0x42, 
    0x69, 0x61, 0x73, 0x41, 0x64, 0x64, 0x2f, 0x52, 0x65, 0x61, 0x64, 0x56, 
    0x61, 0x72, 0x69, 0x61, 0x62, 0x6c, 0x65, 0x4f, 0x70, 0x00, 0x00, 0x00, 
    0x01, 0x00, 0x00, 0x00, 0x20, 0x00, 0x00, 0x00, 0xb6, 0xff, 0xff, 0xff, 
    0x00, 0x00, 0x00, 0x01, 0x10, 0x00, 0x00, 0x00, 0x10, 0x00, 0x00, 0x00, 
    0x03, 0x00, 0x00, 0x00, 0x28, 0x00, 0x00, 0x00, 0x30, 0xff, 0xff, 0xff, 
    0x19, 0x00, 0x00, 0x00, 0x73, 0x65, 0x71, 0x75, 0x65, 0x6e, 0x74, 0x69, 
    0x61, 0x6c, 0x2f, 0x64, 0x65, 0x6e, 0x73, 0x65, 0x5f, 0x32, 0x2f, 0x4d, 
    0x61, 0x74, 0x4d, 0x75, 0x6c, 0x00, 0x00, 0x00, 0x02, 0x00, 0x00, 0x00, 
    0x10, 0x00, 0x00, 0x00, 0x20, 0x00, 0x00, 0x00, 0x00, 0x00, 0x16, 0x00, 
    0x18, 0x00, 0x14, 0x00, 0x00, 0x00, 0x10, 0x00, 0x0c, 0x00, 0x08, 0x00, 
    0x00, 0x00, 0x00, 0x00, 0x00, 0x00, 0x07, 0x00, 0x16, 0x00, 0x00, 0x00, 
    0x00, 0x00, 0x00, 0x01, 0x10, 0x00, 0x00, 0x00, 0x10, 0x00, 0x00, 0x00, 
    0x02, 0x00, 0x00, 0x00, 0x28, 0x00, 0x00, 0x00, 0x90, 0xff, 0xff, 0xff, 
    0x19, 0x00, 0x00, 0x00, 0x73, 0x65, 0x71, 0x75, 0x65, 0x6e, 0x74, 0x69, 
    0x61, 0x6c, 0x2f, 0x64, 0x65, 0x6e, 0x73, 0x65, 0x5f, 0x33, 0x2f, 0x4d, 
    0x61, 0x74, 0x4d, 0x75, 0x6c, 0x00, 0x00, 0x00, 0x02, 0x00, 0x00, 0x00, 
    0x02, 0x00, 0x00, 0x00, 0x10, 0x00, 0x00, 0x00, 0x00, 0x00, 0x16, 0x00, 
    0x1c, 0x00, 0x18, 0x00, 0x00, 0x00, 0x14, 0x00, 0x10, 0x00, 0x0c, 0x00, 
    0x00, 0x00, 0x00, 0x00, 0x08, 0x00, 0x07, 0x00, 0x16, 0x00, 0x00, 0x00, 
    0x00, 0x00, 0x00, 0x01, 0x14, 0x00, 0x00, 0x00, 0x20, 0x00, 0x00, 0x00, 
    0x20, 0x00, 0x00, 0x00, 0x01, 0x00, 0x00, 0x00, 0x3c, 0x00, 0x00, 0x00, 
    0x02, 0x00, 0x00, 0x00, 0xff, 0xff, 0xff, 0xff, 0x26, 0x00, 0x00, 0x00, 
    0x04, 0x00, 0x04, 0x00, 0x04, 0x00, 0x00, 0x00, 0x1d, 0x00, 0x00, 0x00, 
    0x73, 0x65, 0x72, 0x76, 0x69, 0x6e, 0x67, 0x5f, 0x64, 0x65, 0x66, 0x61, 
    0x75, 0x6c, 0x74, 0x5f, 0x64, 0x65, 0x6e, 0x73, 0x65, 0x5f, 0x69, 0x6e, 
    0x70, 0x75, 0x74, 0x3a, 0x30, 0x00, 0x00, 0x00, 0x02, 0x00, 0x00, 0x00, 
    0x01, 0x00, 0x00, 0x00, 0x26, 0x00, 0x00, 0x00, 0x02, 0x00, 0x00, 0x00, 
    0x2c, 0x00, 0x00, 0x00, 0x10, 0x00, 0x00, 0x00, 0x0c, 0x00, 0x0c, 0x00, 
    0x0b, 0x00, 0x00, 0x00, 0x00, 0x00, 0x04, 0x00, 0x0c, 0x00, 0x00, 0x00, 
    0x19, 0x00, 0x00, 0x00, 0x00, 0x00, 0x00, 0x19, 0x0c, 0x00, 0x10, 0x00, 
    0x0f, 0x00, 0x00, 0x00, 0x08, 0x00, 0x04, 0x00, 0x0c, 0x00, 0x00, 0x00, 
    0x09, 0x00, 0x00, 0x00, 0x09, 0x00, 0x00, 0x00, 0x00, 0x00, 0x00, 0x09
};

#endif //NETWORK_MODEL_H